{
  "version": "1.0",
  "truncation": null,
  "padding": null,
  "added_tokens": [
    {
      "id": 100000,
      "content": "<｜begin▁of▁sentence｜>",
      "single_word": false,
      "lstrip": false,
      "rstrip": false,
      "normalized": true,
      "special": true
    },
    {
      "id": 100001,
      "content": "<｜end▁of▁sentence｜>",
      "single_word": false,
      "lstrip": false,
      "rstrip": false,
      "normalized": true,
      "special": true
    },
    {
      "id": 100002,
      "content": "ø",
      "single_word": false,
      "lstrip": false,
      "rstrip": false,
      "normalized": true,
      "special": false
    },
    {
      "id": 100003,
      "content": "ö",
      "single_word": false,
      "lstrip": false,
      "rstrip": false,
      "normalized": true,
      "special": false
    },
    {
      "id": 100004,
      "content": "ú",
      "single_word": false,
      "lstrip": false,
      "rstrip": false,
      "normalized": true,
      "special": false
    },
    {
      "id": 100005,
      "content": "ÿ",
      "single_word": false,
      "lstrip": false,
      "rstrip": false,
      "normalized": true,
      "special": false
    },
    {
      "id": 100006,
      "content": "õ",
      "single_word": false,
      "lstrip": false,
      "rstrip": false,
      "normalized": true,
      "special": false
    },
    {
      "id": 100007,
      "content": "÷",
      "single_word": false,
      "lstrip": false,
      "rstrip": false,
      "normalized": true,
      "special": false
    },
    {
      "id": 100008,
      "content": "û",
      "single_word": false,
      "lstrip": false,
      "rstrip": false,
      "normalized": true,
      "special": false
    },
    {
      "id": 100009,
      "content": "ý",
      "single_word": false,
      "lstrip": false,
      "rstrip": false,
      "normalized": true,
      "special": false
    },
    {
      "id": 100010,
      "content": "À",
      "single_word": false,
      "lstrip": false,
      "rstrip": false,
      "normalized": true,
      "special": false
    },
    {
      "id": 100011,
      "content": "ù",
      "single_word": false,
      "lstrip": false,
      "rstrip": false,
      "normalized": true,
      "special": false
    },
    {
      "id": 100012,
      "content": "Á",
      "single_word": false,
      "lstrip": false,
      "rstrip": false,
      "normalized": true,
      "special": false
    },
    {
      "id": 100013,
      "content": "þ",
      "single_word": false,
      "lstrip": false,
      "rstrip": false,
      "normalized": true,
      "special": false
    },
    {
      "id": 100014,
      "content": "ü",
      "single_word": false,
      "lstrip": false,
      "rstrip": false,
      "normalized": true,
      "special": false
    },
    {
      "id": 100015,
      "content": "<｜▁pad▁｜>",
      "single_word": false,
      "lstrip": false,
      "rstrip": false,
      "normalized": false,
      "special": true
    },
    {
      "id": 100016,
      "content": "<begin_of_image>",
      "single_word": false,
      "lstrip": false,
      "rstrip": false,
      "normalized": false,
      "special": true
    },
    {
      "id": 100017,
      "content": "<image_0>",
      "single_word": false,
      "lstrip": false,
      "rstrip": false,
      "normalized": false,
      "special": true
    },
    {
      "id": 100018,
      "content": "<image_1>",
      "single_word": false,
      "lstrip": false,
      "rstrip": false,
      "normalized": false,
      "special": true
    },
    {
      "id": 100019,
      "content": "<image_2>",
      "single_word": false,
      "lstrip": false,
      "rstrip": false,
      "normalized": false,
      "special": true
    },
    {
      "id": 100020,
      "content": "<image_3>",
      "single_word": false,
      "lstrip": false,
      "rstrip": false,
      "normalized": false,
      "special": true
    },
    {
      "id": 100021,
      "content": "<image_4>",
      "single_word": false,
      "lstrip": false,
      "rstrip": false,
      "normalized": false,
      "special": true
    },
    {
      "id": 100022,
      "content": "<image_5>",
      "single_word": false,
      "lstrip": false,
      "rstrip": false,
      "normalized": false,
      "special": true
    },
    {
      "id": 100023,
      "content": "<image_6>",
      "single_word": false,
      "lstrip": false,
      "rstrip": false,
      "normalized": false,
      "special": true
    },
    {
      "id": 100024,
      "content": "<image_7>",
      "single_word": false,
      "lstrip": false,
      "rstrip": false,
      "normalized": false,
      "special": true
    },
    {
      "id": 100025,
      "content": "<image_8>",
      "single_word": false,
      "lstrip": false,
      "rstrip": false,
      "normalized": false,
      "special": true
    },
    {
      "id": 100026,
      "content": "<image_9>",
      "single_word": false,
      "lstrip": false,
      "rstrip": false,
      "normalized": false,
      "special": true
    },
    {
      "id": 100027,
      "content": "<image_10>",
      "single_word": false,
      "lstrip": false,
      "rstrip": false,
      "normalized": false,
      "special": true
    },
    {
      "id": 100028,
      "content": "<image_11>",
      "single_word": false,
      "lstrip": false,
      "rstrip": false,
      "normalized": false,
      "special": true
    },
    {
      "id": 100029,
      "content": "<image_12>",
      "single_word": false,
      "lstrip": false,
      "rstrip": false,
      "normalized": false,
      "special": true
    },
    {
      "id": 100030,
      "content": "<image_13>",
      "single_word": false,
      "lstrip": false,
      "rstrip": false,
      "normalized": false,
      "special": true
    },
    {
      "id": 100031,
      "content": "<image_14>",
      "single_word": false,
      "lstrip": false,
      "rstrip": false,
      "normalized": false,
      "special": true
    },
    {
      "id": 100032,
      "content": "<image_15>",
      "single_word": false,
      "lstrip": false,
      "rstrip": false,
      "normalized": false,
      "special": true
    },
    {
      "id": 100033,
      "content": "<image_16>",
      "single_word": false,
      "lstrip": false,
      "rstrip": false,
      "normalized": false,
      "special": true
    },
    {
      "id": 100034,
      "content": "<image_17>",
      "single_word": false,
      "lstrip": false,
      "rstrip": false,
      "normalized": false,
      "special": true
    },
    {
      "id": 100035,
      "content": "<image_18>",
      "single_word": false,
      "lstrip": false,
      "rstrip": false,
      "normalized": false,
      "special": true
    },
    {
      "id": 100036,
      "content": "<image_19>",
      "single_word": false,
      "lstrip": false,
      "rstrip": false,
      "normalized": false,
      "special": true
    },
    {
      "id": 100037,
      "content": "<image_20>",
      "single_word": false,
      "lstrip": false,
      "rstrip": false,
      "normalized": false,
      "special": true
    },
    {
      "id": 100038,
      "content": "<image_21>",
      "single_word": false,
      "lstrip": false,
      "rstrip": false,
      "normalized": false,
      "special": true
    },
    {
      "id": 100039,
      "content": "<image_22>",
      "single_word": false,
      "lstrip": false,
      "rstrip": false,
      "normalized": false,
      "special": true
    },
    {
      "id": 100040,
      "content": "<image_23>",
      "single_word": false,
      "lstrip": false,
      "rstrip": false,
      "normalized": false,
      "special": true
    },
    {
      "id": 100041,
      "content": "<image_24>",
      "single_word": false,
      "lstrip": false,
      "rstrip": false,
      "normalized": false,
      "special": true
    },
    {
      "id": 100042,
      "content": "<image_25>",
      "single_word": false,
      "lstrip": false,
      "rstrip": false,
      "normalized": false,
      "special": true
    },
    {
      "id": 100043,
      "content": "<image_26>",
      "single_word": false,
      "lstrip": false,
      "rstrip": false,
      "normalized": false,
      "special": true
    },
    {
      "id": 100044,
      "content": "<image_27>",
      "single_word": false,
      "lstrip": false,
      "rstrip": false,
      "normalized": false,
      "special": true
    },
    {
      "id": 100045,
      "content": "<image_28>",
      "single_word": false,
      "lstrip": false,
      "rstrip": false,
      "normalized": false,
      "special": true
    },
    {
      "id": 100046,
      "content": "<image_29>",
      "single_word": false,
      "lstrip": false,
      "rstrip": false,
      "normalized": false,
      "special": true
    },
    {
      "id": 100047,
      "content": "<image_30>",
      "single_word": false,
      "lstrip": false,
      "rstrip": false,
      "normalized": false,
      "special": true
    },
    {
      "id": 100048,
      "content": "<image_31>",
      "single_word": false,
      "lstrip": false,
      "rstrip": false,
      "normalized": false,
      "special": true
    },
    {
      "id": 100049,
      "content": "<image_32>",
      "single_word": false,
      "lstrip": false,
      "rstrip": false,
      "normalized": false,
      "special": true
    },
    {
      "id": 100050,
      "content": "<image_33>",
      "single_word": false,
      "lstrip": false,
      "rstrip": false,
      "normalized": false,
      "special": true
    },
    {
      "id": 100051,
      "content": "<image_34>",
      "single_word": false,
      "lstrip": false,
      "rstrip": false,
      "normalized": false,
      "special": true
    },
    {
      "id": 100052,
      "content": "<image_35>",
      "single_word": false,
      "lstrip": false,
      "rstrip": false,
      "normalized": false,
      "special": true
    },
    {
      "id": 100053,
      "content": "<image_36>",
      "single_word": false,
      "lstrip": false,
      "rstrip": false,
      "normalized": false,
      "special": true
    },
    {
      "id": 100054,
      "content": "<image_37>",
      "single_word": false,
      "lstrip": false,
      "rstrip": false,
      "normalized": false,
      "special": true
    },
    {
      "id": 100055,
      "content": "<image_38>",
      "single_word": false,
      "lstrip": false,
      "rstrip": false,
      "normalized": false,
      "special": true
    },
    {
      "id": 100056,
      "content": "<image_39>",
      "single_word": false,
      "lstrip": false,
      "rstrip": false,
      "normalized": false,
      "special": true
    },
    {
      "id": 100057,
      "content": "<image_40>",
      "single_word": false,
      "lstrip": false,
      "rstrip": false,
      "normalized": false,
      "special": true
    },
    {
      "id": 100058,
      "content": "<image_41>",
      "single_word": false,
      "lstrip": false,
      "rstrip": false,
      "normalized": false,
      "special": true
    },
    {
      "id": 100059,
      "content": "<image_42>",
      "single_word": false,
      "lstrip": false,
      "rstrip": false,
      "normalized": false,
      "special": true
    },
    {
      "id": 100060,
      "content": "<image_43>",
      "single_word": false,
      "lstrip": false,
      "rstrip": false,
      "normalized": false,
      "special": true
    },
    {
      "id": 100061,
      "content": "<image_44>",
      "single_word": false,
      "lstrip": false,
      "rstrip": false,
      "normalized": false,
      "special": true
    },
    {
      "id": 100062,
      "content": "<image_45>",
      "single_word": false,
      "lstrip": false,
      "rstrip": false,
      "normalized": false,
      "special": true
    },
    {
      "id": 100063,
      "content": "<image_46>",
      "single_word": false,
      "lstrip": false,
      "rstrip": false,
      "normalized": false,
      "special": true
    },
    {
      "id": 100064,
      "content": "<image_47>",
      "single_word": false,
      "lstrip": false,
      "rstrip": false,
      "normalized": false,
      "special": true
    },
    {
      "id": 100065,
      "content": "<image_48>",
      "single_word": false,
      "lstrip": false,
      "rstrip": false,
      "normalized": false,
      "special": true
    },
    {
      "id": 100066,
      "content": "<image_49>",
      "single_word": false,
      "lstrip": false,
      "rstrip": false,
      "normalized": false,
      "special": true
    },
    {
      "id": 100067,
      "content": "<image_50>",
      "single_word": false,
      "lstrip": false,
      "rstrip": false,
      "normalized": false,
      "special": true
    },
    {
      "id": 100068,
      "content": "<image_51>",
      "single_word": false,
      "lstrip": false,
      "rstrip": false,
      "normalized": false,
      "special": true
    },
    {
      "id": 100069,
      "content": "<image_52>",
      "single_word": false,
      "lstrip": false,
      "rstrip": false,
      "normalized": false,
      "special": true
    },
    {
      "id": 100070,
      "content": "<image_53>",
      "single_word": false,
      "lstrip": false,
      "rstrip": false,
      "normalized": false,
      "special": true
    },
    {
      "id": 100071,
      "content": "<image_54>",
      "single_word": false,
      "lstrip": false,
      "rstrip": false,
      "normalized": false,
      "special": true
    },
    {
      "id": 100072,
      "content": "<image_55>",
      "single_word": false,
      "lstrip": false,
      "rstrip": false,
      "normalized": false,
      "special": true
    },
    {
      "id": 100073,
      "content": "<image_56>",
      "single_word": false,
      "lstrip": false,
      "rstrip": false,
      "normalized": false,
      "special": true
    },
    {
      "id": 100074,
      "content": "<image_57>",
      "single_word": false,
      "lstrip": false,
      "rstrip": false,
      "normalized": false,
      "special": true
    },
    {
      "id": 100075,
      "content": "<image_58>",
      "single_word": false,
      "lstrip": false,
      "rstrip": false,
      "normalized": false,
      "special": true
    },
    {
      "id": 100076,
      "content": "<image_59>",
      "single_word": false,
      "lstrip": false,
      "rstrip": false,
      "normalized": false,
      "special": true
    },
    {
      "id": 100077,
      "content": "<image_60>",
      "single_word": false,
      "lstrip": false,
      "rstrip": false,
      "normalized": false,
      "special": true
    },
    {
      "id": 100078,
      "content": "<image_61>",
      "single_word": false,
      "lstrip": false,
      "rstrip": false,
      "normalized": false,
      "special": true
    },
    {
      "id": 100079,
      "content": "<image_62>",
      "single_word": false,
      "lstrip": false,
      "rstrip": false,
      "normalized": false,
      "special": true
    },
    {
      "id": 100080,
      "content": "<image_63>",
      "single_word": false,
      "lstrip": false,
      "rstrip": false,
      "normalized": false,
      "special": true
    },
    {
      "id": 100081,
      "content": "<image_64>",
      "single_word": false,
      "lstrip": false,
      "rstrip": false,
      "normalized": false,
      "special": true
    },
    {
      "id": 100082,
      "content": "<image_65>",
      "single_word": false,
      "lstrip": false,
      "rstrip": false,
      "normalized": false,
      "special": true
    },
    {
      "id": 100083,
      "content": "<image_66>",
      "single_word": false,
      "lstrip": false,
      "rstrip": false,
      "normalized": false,
      "special": true
    },
    {
      "id": 100084,
      "content": "<image_67>",
      "single_word": false,
      "lstrip": false,
      "rstrip": false,
      "normalized": false,
      "special": true
    },
    {
      "id": 100085,
      "content": "<image_68>",
      "single_word": false,
      "lstrip": false,
      "rstrip": false,
      "normalized": false,
      "special": true
    },
    {
      "id": 100086,
      "content": "<image_69>",
      "single_word": false,
      "lstrip": false,
      "rstrip": false,
      "normalized": false,
      "special": true
    },
    {
      "id": 100087,
      "content": "<image_70>",
      "single_word": false,
      "lstrip": false,
      "rstrip": false,
      "normalized": false,
      "special": true
    },
    {
      "id": 100088,
      "content": "<image_71>",
      "single_word": false,
      "lstrip": false,
      "rstrip": false,
      "normalized": false,
      "special": true
    },
    {
      "id": 100089,
      "content": "<image_72>",
      "single_word": false,
      "lstrip": false,
      "rstrip": false,
      "normalized": false,
      "special": true
    },
    {
      "id": 100090,
      "content": "<image_73>",
      "single_word": false,
      "lstrip": false,
      "rstrip": false,
      "normalized": false,
      "special": true
    },
    {
      "id": 100091,
      "content": "<image_74>",
      "single_word": false,
      "lstrip": false,
      "rstrip": false,
      "normalized": false,
      "special": true
    },
    {
      "id": 100092,
      "content": "<image_75>",
      "single_word": false,
      "lstrip": false,
      "rstrip": false,
      "normalized": false,
      "special": true
    },
    {
      "id": 100093,
      "content": "<image_76>",
      "single_word": false,
      "lstrip": false,
      "rstrip": false,
      "normalized": false,
      "special": true
    },
    {
      "id": 100094,
      "content": "<image_77>",
      "single_word": false,
      "lstrip": false,
      "rstrip": false,
      "normalized": false,
      "special": true
    },
    {
      "id": 100095,
      "content": "<image_78>",
      "single_word": false,
      "lstrip": false,
      "rstrip": false,
      "normalized": false,
      "special": true
    },
    {
      "id": 100096,
      "content": "<image_79>",
      "single_word": false,
      "lstrip": false,
      "rstrip": false,
      "normalized": false,
      "special": true
    },
    {
      "id": 100097,
      "content": "<image_80>",
      "single_word": false,
      "lstrip": false,
      "rstrip": false,
      "normalized": false,
      "special": true
    },
    {
      "id": 100098,
      "content": "<image_81>",
      "single_word": false,
      "lstrip": false,
      "rstrip": false,
      "normalized": false,
      "special": true
    },
    {
      "id": 100099,
      "content": "<image_82>",
      "single_word": false,
      "lstrip": false,
      "rstrip": false,
      "normalized": false,
      "special": true
    },
    {
      "id": 100100,
      "content": "<image_83>",
      "single_word": false,
      "lstrip": false,
      "rstrip": false,
      "normalized": false,
      "special": true
    },
    {
      "id": 100101,
      "content": "<image_84>",
      "single_word": false,
      "lstrip": false,
      "rstrip": false,
      "normalized": false,
      "special": true
    },
    {
      "id": 100102,
      "content": "<image_85>",
      "single_word": false,
      "lstrip": false,
      "rstrip": false,
      "normalized": false,
      "special": true
    },
    {
      "id": 100103,
      "content": "<image_86>",
      "single_word": false,
      "lstrip": false,
      "rstrip": false,
      "normalized": false,
      "special": true
    },
    {
      "id": 100104,
      "content": "<image_87>",
      "single_word": false,
      "lstrip": false,
      "rstrip": false,
      "normalized": false,
      "special": true
    },
    {
      "id": 100105,
      "content": "<image_88>",
      "single_word": false,
      "lstrip": false,
      "rstrip": false,
      "normalized": false,
      "special": true
    },
    {
      "id": 100106,
      "content": "<image_89>",
      "single_word": false,
      "lstrip": false,
      "rstrip": false,
      "normalized": false,
      "special": true
    },
    {
      "id": 100107,
      "content": "<image_90>",
      "single_word": false,
      "lstrip": false,
      "rstrip": false,
      "normalized": false,
      "special": true
    },
    {
      "id": 100108,
      "content": "<image_91>",
      "single_word": false,
      "lstrip": false,
      "rstrip": false,
      "normalized": false,
      "special": true
    },
    {
      "id": 100109,
      "content": "<image_92>",
      "single_word": false,
      "lstrip": false,
      "rstrip": false,
      "normalized": false,
      "special": true
    },
    {
      "id": 100110,
      "content": "<image_93>",
      "single_word": false,
      "lstrip": false,
      "rstrip": false,
      "normalized": false,
      "special": true
    },
    {
      "id": 100111,
      "content": "<image_94>",
      "single_word": false,
      "lstrip": false,
      "rstrip": false,
      "normalized": false,
      "special": true
    },
    {
      "id": 100112,
      "content": "<image_95>",
      "single_word": false,
      "lstrip": false,
      "rstrip": false,
      "normalized": false,
      "special": true
    },
    {
      "id": 100113,
      "content": "<image_96>",
      "single_word": false,
      "lstrip": false,
      "rstrip": false,
      "normalized": false,
      "special": true
    },
    {
      "id": 100114,
      "content": "<image_97>",
      "single_word": false,
      "lstrip": false,
      "rstrip": false,
      "normalized": false,
      "special": true
    },
    {
      "id": 100115,
      "content": "<image_98>",
      "single_word": false,
      "lstrip": false,
      "rstrip": false,
      "normalized": false,
      "special": true
    },
    {
      "id": 100116,
      "content": "<image_99>",
      "single_word": false,
      "lstrip": false,
      "rstrip": false,
      "normalized": false,
      "special": true
    },
    {
      "id": 100117,
      "content": "<image_100>",
      "single_word": false,
      "lstrip": false,
      "rstrip": false,
      "normalized": false,
      "special": true
    },
    {
      "id": 100118,
      "content": "<image_101>",
      "single_word": false,
      "lstrip": false,
      "rstrip": false,
      "normalized": false,
      "special": true
    },
    {
      "id": 100119,
      "content": "<image_102>",
      "single_word": false,
      "lstrip": false,
      "rstrip": false,
      "normalized": false,
      "special": true
    },
    {
      "id": 100120,
      "content": "<image_103>",
      "single_word": false,
      "lstrip": false,
      "rstrip": false,
      "normalized": false,
      "special": true
    },
    {
      "id": 100121,
      "content": "<image_104>",
      "single_word": false,
      "lstrip": false,
      "rstrip": false,
      "normalized": false,
      "special": true
    },
    {
      "id": 100122,
      "content": "<image_105>",
      "single_word": false,
      "lstrip": false,
      "rstrip": false,
      "normalized": false,
      "special": true
    },
    {
      "id": 100123,
      "content": "<image_106>",
      "single_word": false,
      "lstrip": false,
      "rstrip": false,
      "normalized": false,
      "special": true
    },
    {
      "id": 100124,
      "content": "<image_107>",
      "single_word": false,
      "lstrip": false,
      "rstrip": false,
      "normalized": false,
      "special": true
    },
    {
      "id": 100125,
      "content": "<image_108>",
      "single_word": false,
      "lstrip": false,
      "rstrip": false,
      "normalized": false,
      "special": true
    },
    {
      "id": 100126,
      "content": "<image_109>",
      "single_word": false,
      "lstrip": false,
      "rstrip": false,
      "normalized": false,
      "special": true
    },
    {
      "id": 100127,
      "content": "<image_110>",
      "single_word": false,
      "lstrip": false,
      "rstrip": false,
      "normalized": false,
      "special": true
    },
    {
      "id": 100128,
      "content": "<image_111>",
      "single_word": false,
      "lstrip": false,
      "rstrip": false,
      "normalized": false,
      "special": true
    },
    {
      "id": 100129,
      "content": "<image_112>",
      "single_word": false,
      "lstrip": false,
      "rstrip": false,
      "normalized": false,
      "special": true
    },
    {
      "id": 100130,
      "content": "<image_113>",
      "single_word": false,
      "lstrip": false,
      "rstrip": false,
      "normalized": false,
      "special": true
    },
    {
      "id": 100131,
      "content": "<image_114>",
      "single_word": false,
      "lstrip": false,
      "rstrip": false,
      "normalized": false,
      "special": true
    },
    {
      "id": 100132,
      "content": "<image_115>",
      "single_word": false,
      "lstrip": false,
      "rstrip": false,
      "normalized": false,
      "special": true
    },
    {
      "id": 100133,
      "content": "<image_116>",
      "single_word": false,
      "lstrip": false,
      "rstrip": false,
      "normalized": false,
      "special": true
    },
    {
      "id": 100134,
      "content": "<image_117>",
      "single_word": false,
      "lstrip": false,
      "rstrip": false,
      "normalized": false,
      "special": true
    },
    {
      "id": 100135,
      "content": "<image_118>",
      "single_word": false,
      "lstrip": false,
      "rstrip": false,
      "normalized": false,
      "special": true
    },
    {
      "id": 100136,
      "content": "<image_119>",
      "single_word": false,
      "lstrip": false,
      "rstrip": false,
      "normalized": false,
      "special": true
    },
    {
      "id": 100137,
      "content": "<image_120>",
      "single_word": false,
      "lstrip": false,
      "rstrip": false,
      "normalized": false,
      "special": true
    },
    {
      "id": 100138,
      "content": "<image_121>",
      "single_word": false,
      "lstrip": false,
      "rstrip": false,
      "normalized": false,
      "special": true
    },
    {
      "id": 100139,
      "content": "<image_122>",
      "single_word": false,
      "lstrip": false,
      "rstrip": false,
      "normalized": false,
      "special": true
    },
    {
      "id": 100140,
      "content": "<image_123>",
      "single_word": false,
      "lstrip": false,
      "rstrip": false,
      "normalized": false,
      "special": true
    },
    {
      "id": 100141,
      "content": "<image_124>",
      "single_word": false,
      "lstrip": false,
      "rstrip": false,
      "normalized": false,
      "special": true
    },
    {
      "id": 100142,
      "content": "<image_125>",
      "single_word": false,
      "lstrip": false,
      "rstrip": false,
      "normalized": false,
      "special": true
    },
    {
      "id": 100143,
      "content": "<image_126>",
      "single_word": false,
      "lstrip": false,
      "rstrip": false,
      "normalized": false,
      "special": true
    },
    {
      "id": 100144,
      "content": "<image_127>",
      "single_word": false,
      "lstrip": false,
      "rstrip": false,
      "normalized": false,
      "special": true
    },
    {
      "id": 100145,
      "content": "<image_128>",
      "single_word": false,
      "lstrip": false,
      "rstrip": false,
      "normalized": false,
      "special": true
    },
    {
      "id": 100146,
      "content": "<image_129>",
      "single_word": false,
      "lstrip": false,
      "rstrip": false,
      "normalized": false,
      "special": true
    },
    {
      "id": 100147,
      "content": "<image_130>",
      "single_word": false,
      "lstrip": false,
      "rstrip": false,
      "normalized": false,
      "special": true
    },
    {
      "id": 100148,
      "content": "<image_131>",
      "single_word": false,
      "lstrip": false,
      "rstrip": false,
      "normalized": false,
      "special": true
    },
    {
      "id": 100149,
      "content": "<image_132>",
      "single_word": false,
      "lstrip": false,
      "rstrip": false,
      "normalized": false,
      "special": true
    },
    {
      "id": 100150,
      "content": "<image_133>",
      "single_word": false,
      "lstrip": false,
      "rstrip": false,
      "normalized": false,
      "special": true
    },
    {
      "id": 100151,
      "content": "<image_134>",
      "single_word": false,
      "lstrip": false,
      "rstrip": false,
      "normalized": false,
      "special": true
    },
    {
      "id": 100152,
      "content": "<image_135>",
      "single_word": false,
      "lstrip": false,
      "rstrip": false,
      "normalized": false,
      "special": true
    },
    {
      "id": 100153,
      "content": "<image_136>",
      "single_word": false,
      "lstrip": false,
      "rstrip": false,
      "normalized": false,
      "special": true
    },
    {
      "id": 100154,
      "content": "<image_137>",
      "single_word": false,
      "lstrip": false,
      "rstrip": false,
      "normalized": false,
      "special": true
    },
    {
      "id": 100155,
      "content": "<image_138>",
      "single_word": false,
      "lstrip": false,
      "rstrip": false,
      "normalized": false,
      "special": true
    },
    {
      "id": 100156,
      "content": "<image_139>",
      "single_word": false,
      "lstrip": false,
      "rstrip": false,
      "normalized": false,
      "special": true
    },
    {
      "id": 100157,
      "content": "<image_140>",
      "single_word": false,
      "lstrip": false,
      "rstrip": false,
      "normalized": false,
      "special": true
    },
    {
      "id": 100158,
      "content": "<image_141>",
      "single_word": false,
      "lstrip": false,
      "rstrip": false,
      "normalized": false,
      "special": true
    },
    {
      "id": 100159,
      "content": "<image_142>",
      "single_word": false,
      "lstrip": false,
      "rstrip": false,
      "normalized": false,
      "special": true
    },
    {
      "id": 100160,
      "content": "<image_143>",
      "single_word": false,
      "lstrip": false,
      "rstrip": false,
      "normalized": false,
      "special": true
    },
    {
      "id": 100161,
      "content": "<image_144>",
      "single_word": false,
      "lstrip": false,
      "rstrip": false,
      "normalized": false,
      "special": true
    },
    {
      "id": 100162,
      "content": "<image_145>",
      "single_word": false,
      "lstrip": false,
      "rstrip": false,
      "normalized": false,
      "special": true
    },
    {
      "id": 100163,
      "content": "<image_146>",
      "single_word": false,
      "lstrip": false,
      "rstrip": false,
      "normalized": false,
      "special": true
    },
    {
      "id": 100164,
      "content": "<image_147>",
      "single_word": false,
      "lstrip": false,
      "rstrip": false,
      "normalized": false,
      "special": true
    },
    {
      "id": 100165,
      "content": "<image_148>",
      "single_word": false,
      "lstrip": false,
      "rstrip": false,
      "normalized": false,
      "special": true
    },
    {
      "id": 100166,
      "content": "<image_149>",
      "single_word": false,
      "lstrip": false,
      "rstrip": false,
      "normalized": false,
      "special": true
    },
    {
      "id": 100167,
      "content": "<image_150>",
      "single_word": false,
      "lstrip": false,
      "rstrip": false,
      "normalized": false,
      "special": true
    },
    {
      "id": 100168,
      "content": "<image_151>",
      "single_word": false,
      "lstrip": false,
      "rstrip": false,
      "normalized": false,
      "special": true
    },
    {
      "id": 100169,
      "content": "<image_152>",
      "single_word": false,
      "lstrip": false,
      "rstrip": false,
      "normalized": false,
      "special": true
    },
    {
      "id": 100170,
      "content": "<image_153>",
      "single_word": false,
      "lstrip": false,
      "rstrip": false,
      "normalized": false,
      "special": true
    },
    {
      "id": 100171,
      "content": "<image_154>",
      "single_word": false,
      "lstrip": false,
      "rstrip": false,
      "normalized": false,
      "special": true
    },
    {
      "id": 100172,
      "content": "<image_155>",
      "single_word": false,
      "lstrip": false,
      "rstrip": false,
      "normalized": false,
      "special": true
    },
    {
      "id": 100173,
      "content": "<image_156>",
      "single_word": false,
      "lstrip": false,
      "rstrip": false,
      "normalized": false,
      "special": true
    },
    {
      "id": 100174,
      "content": "<image_157>",
      "single_word": false,
      "lstrip": false,
      "rstrip": false,
      "normalized": false,
      "special": true
    },
    {
      "id": 100175,
      "content": "<image_158>",
      "single_word": false,
      "lstrip": false,
      "rstrip": false,
      "normalized": false,
      "special": true
    },
    {
      "id": 100176,
      "content": "<image_159>",
      "single_word": false,
      "lstrip": false,
      "rstrip": false,
      "normalized": false,
      "special": true
    },
    {
      "id": 100177,
      "content": "<image_160>",
      "single_word": false,
      "lstrip": false,
      "rstrip": false,
      "normalized": false,
      "special": true
    },
    {
      "id": 100178,
      "content": "<image_161>",
      "single_word": false,
      "lstrip": false,
      "rstrip": false,
      "normalized": false,
      "special": true
    },
    {
      "id": 100179,
      "content": "<image_162>",
      "single_word": false,
      "lstrip": false,
      "rstrip": false,
      "normalized": false,
      "special": true
    },
    {
      "id": 100180,
      "content": "<image_163>",
      "single_word": false,
      "lstrip": false,
      "rstrip": false,
      "normalized": false,
      "special": true
    },
    {
      "id": 100181,
      "content": "<image_164>",
      "single_word": false,
      "lstrip": false,
      "rstrip": false,
      "normalized": false,
      "special": true
    },
    {
      "id": 100182,
      "content": "<image_165>",
      "single_word": false,
      "lstrip": false,
      "rstrip": false,
      "normalized": false,
      "special": true
    },
    {
      "id": 100183,
      "content": "<image_166>",
      "single_word": false,
      "lstrip": false,
      "rstrip": false,
      "normalized": false,
      "special": true
    },
    {
      "id": 100184,
      "content": "<image_167>",
      "single_word": false,
      "lstrip": false,
      "rstrip": false,
      "normalized": false,
      "special": true
    },
    {
      "id": 100185,
      "content": "<image_168>",
      "single_word": false,
      "lstrip": false,
      "rstrip": false,
      "normalized": false,
      "special": true
    },
    {
      "id": 100186,
      "content": "<image_169>",
      "single_word": false,
      "lstrip": false,
      "rstrip": false,
      "normalized": false,
      "special": true
    },
    {
      "id": 100187,
      "content": "<image_170>",
      "single_word": false,
      "lstrip": false,
      "rstrip": false,
      "normalized": false,
      "special": true
    },
    {
      "id": 100188,
      "content": "<image_171>",
      "single_word": false,
      "lstrip": false,
      "rstrip": false,
      "normalized": false,
      "special": true
    },
    {
      "id": 100189,
      "content": "<image_172>",
      "single_word": false,
      "lstrip": false,
      "rstrip": false,
      "normalized": false,
      "special": true
    },
    {
      "id": 100190,
      "content": "<image_173>",
      "single_word": false,
      "lstrip": false,
      "rstrip": false,
      "normalized": false,
      "special": true
    },
    {
      "id": 100191,
      "content": "<image_174>",
      "single_word": false,
      "lstrip": false,
      "rstrip": false,
      "normalized": false,
      "special": true
    },
    {
      "id": 100192,
      "content": "<image_175>",
      "single_word": false,
      "lstrip": false,
      "rstrip": false,
      "normalized": false,
      "special": true
    },
    {
      "id": 100193,
      "content": "<image_176>",
      "single_word": false,
      "lstrip": false,
      "rstrip": false,
      "normalized": false,
      "special": true
    },
    {
      "id": 100194,
      "content": "<image_177>",
      "single_word": false,
      "lstrip": false,
      "rstrip": false,
      "normalized": false,
      "special": true
    },
    {
      "id": 100195,
      "content": "<image_178>",
      "single_word": false,
      "lstrip": false,
      "rstrip": false,
      "normalized": false,
      "special": true
    },
    {
      "id": 100196,
      "content": "<image_179>",
      "single_word": false,
      "lstrip": false,
      "rstrip": false,
      "normalized": false,
      "special": true
    },
    {
      "id": 100197,
      "content": "<image_180>",
      "single_word": false,
      "lstrip": false,
      "rstrip": false,
      "normalized": false,
      "special": true
    },
    {
      "id": 100198,
      "content": "<image_181>",
      "single_word": false,
      "lstrip": false,
      "rstrip": false,
      "normalized": false,
      "special": true
    },
    {
      "id": 100199,
      "content": "<image_182>",
      "single_word": false,
      "lstrip": false,
      "rstrip": false,
      "normalized": false,
      "special": true
    },
    {
      "id": 100200,
      "content": "<image_183>",
      "single_word": false,
      "lstrip": false,
      "rstrip": false,
      "normalized": false,
      "special": true
    },
    {
      "id": 100201,
      "content": "<image_184>",
      "single_word": false,
      "lstrip": false,
      "rstrip": false,
      "normalized": false,
      "special": true
    },
    {
      "id": 100202,
      "content": "<image_185>",
      "single_word": false,
      "lstrip": false,
      "rstrip": false,
      "normalized": false,
      "special": true
    },
    {
      "id": 100203,
      "content": "<image_186>",
      "single_word": false,
      "lstrip": false,
      "rstrip": false,
      "normalized": false,
      "special": true
    },
    {
      "id": 100204,
      "content": "<image_187>",
      "single_word": false,
      "lstrip": false,
      "rstrip": false,
      "normalized": false,
      "special": true
    },
    {
      "id": 100205,
      "content": "<image_188>",
      "single_word": false,
      "lstrip": false,
      "rstrip": false,
      "normalized": false,
      "special": true
    },
    {
      "id": 100206,
      "content": "<image_189>",
      "single_word": false,
      "lstrip": false,
      "rstrip": false,
      "normalized": false,
      "special": true
    },
    {
      "id": 100207,
      "content": "<image_190>",
      "single_word": false,
      "lstrip": false,
      "rstrip": false,
      "normalized": false,
      "special": true
    },
    {
      "id": 100208,
      "content": "<image_191>",
      "single_word": false,
      "lstrip": false,
      "rstrip": false,
      "normalized": false,
      "special": true
    },
    {
      "id": 100209,
      "content": "<image_192>",
      "single_word": false,
      "lstrip": false,
      "rstrip": false,
      "normalized": false,
      "special": true
    },
    {
      "id": 100210,
      "content": "<image_193>",
      "single_word": false,
      "lstrip": false,
      "rstrip": false,
      "normalized": false,
      "special": true
    },
    {
      "id": 100211,
      "content": "<image_194>",
      "single_word": false,
      "lstrip": false,
      "rstrip": false,
      "normalized": false,
      "special": true
    },
    {
      "id": 100212,
      "content": "<image_195>",
      "single_word": false,
      "lstrip": false,
      "rstrip": false,
      "normalized": false,
      "special": true
    },
    {
      "id": 100213,
      "content": "<image_196>",
      "single_word": false,
      "lstrip": false,
      "rstrip": false,
      "normalized": false,
      "special": true
    },
    {
      "id": 100214,
      "content": "<image_197>",
      "single_word": false,
      "lstrip": false,
      "rstrip": false,
      "normalized": false,
      "special": true
    },
    {
      "id": 100215,
      "content": "<image_198>",
      "single_word": false,
      "lstrip": false,
      "rstrip": false,
      "normalized": false,
      "special": true
    },
    {
      "id": 100216,
      "content": "<image_199>",
      "single_word": false,
      "lstrip": false,
      "rstrip": false,
      "normalized": false,
      "special": true
    },
    {
      "id": 100217,
      "content": "<image_200>",
      "single_word": false,
      "lstrip": false,
      "rstrip": false,
      "normalized": false,
      "special": true
    },
    {
      "id": 100218,
      "content": "<image_201>",
      "single_word": false,
      "lstrip": false,
      "rstrip": false,
      "normalized": false,
      "special": true
    },
    {
      "id": 100219,
      "content": "<image_202>",
      "single_word": false,
      "lstrip": false,
      "rstrip": false,
      "normalized": false,
      "special": true
    },
    {
      "id": 100220,
      "content": "<image_203>",
      "single_word": false,
      "lstrip": false,
      "rstrip": false,
      "normalized": false,
      "special": true
    },
    {
      "id": 100221,
      "content": "<image_204>",
      "single_word": false,
      "lstrip": false,
      "rstrip": false,
      "normalized": false,
      "special": true
    },
    {
      "id": 100222,
      "content": "<image_205>",
      "single_word": false,
      "lstrip": false,
      "rstrip": false,
      "normalized": false,
      "special": true
    },
    {
      "id": 100223,
      "content": "<image_206>",
      "single_word": false,
      "lstrip": false,
      "rstrip": false,
      "normalized": false,
      "special": true
    },
    {
      "id": 100224,
      "content": "<image_207>",
      "single_word": false,
      "lstrip": false,
      "rstrip": false,
      "normalized": false,
      "special": true
    },
    {
      "id": 100225,
      "content": "<image_208>",
      "single_word": false,
      "lstrip": false,
      "rstrip": false,
      "normalized": false,
      "special": true
    },
    {
      "id": 100226,
      "content": "<image_209>",
      "single_word": false,
      "lstrip": false,
      "rstrip": false,
      "normalized": false,
      "special": true
    },
    {
      "id": 100227,
      "content": "<image_210>",
      "single_word": false,
      "lstrip": false,
      "rstrip": false,
      "normalized": false,
      "special": true
    },
    {
      "id": 100228,
      "content": "<image_211>",
      "single_word": false,
      "lstrip": false,
      "rstrip": false,
      "normalized": false,
      "special": true
    },
    {
      "id": 100229,
      "content": "<image_212>",
      "single_word": false,
      "lstrip": false,
      "rstrip": false,
      "normalized": false,
      "special": true
    },
    {
      "id": 100230,
      "content": "<image_213>",
      "single_word": false,
      "lstrip": false,
      "rstrip": false,
      "normalized": false,
      "special": true
    },
    {
      "id": 100231,
      "content": "<image_214>",
      "single_word": false,
      "lstrip": false,
      "rstrip": false,
      "normalized": false,
      "special": true
    },
    {
      "id": 100232,
      "content": "<image_215>",
      "single_word": false,
      "lstrip": false,
      "rstrip": false,
      "normalized": false,
      "special": true
    },
    {
      "id": 100233,
      "content": "<image_216>",
      "single_word": false,
      "lstrip": false,
      "rstrip": false,
      "normalized": false,
      "special": true
    },
    {
      "id": 100234,
      "content": "<image_217>",
      "single_word": false,
      "lstrip": false,
      "rstrip": false,
      "normalized": false,
      "special": true
    },
    {
      "id": 100235,
      "content": "<image_218>",
      "single_word": false,
      "lstrip": false,
      "rstrip": false,
      "normalized": false,
      "special": true
    },
    {
      "id": 100236,
      "content": "<image_219>",
      "single_word": false,
      "lstrip": false,
      "rstrip": false,
      "normalized": false,
      "special": true
    },
    {
      "id": 100237,
      "content": "<image_220>",
      "single_word": false,
      "lstrip": false,
      "rstrip": false,
      "normalized": false,
      "special": true
    },
    {
      "id": 100238,
      "content": "<image_221>",
      "single_word": false,
      "lstrip": false,
      "rstrip": false,
      "normalized": false,
      "special": true
    },
    {
      "id": 100239,
      "content": "<image_222>",
      "single_word": false,
      "lstrip": false,
      "rstrip": false,
      "normalized": false,
      "special": true
    },
    {
      "id": 100240,
      "content": "<image_223>",
      "single_word": false,
      "lstrip": false,
      "rstrip": false,
      "normalized": false,
      "special": true
    },
    {
      "id": 100241,
      "content": "<image_224>",
      "single_word": false,
      "lstrip": false,
      "rstrip": false,
      "normalized": false,
      "special": true
    },
    {
      "id": 100242,
      "content": "<image_225>",
      "single_word": false,
      "lstrip": false,
      "rstrip": false,
      "normalized": false,
      "special": true
    },
    {
      "id": 100243,
      "content": "<image_226>",
      "single_word": false,
      "lstrip": false,
      "rstrip": false,
      "normalized": false,
      "special": true
    },
    {
      "id": 100244,
      "content": "<image_227>",
      "single_word": false,
      "lstrip": false,
      "rstrip": false,
      "normalized": false,
      "special": true
    },
    {
      "id": 100245,
      "content": "<image_228>",
      "single_word": false,
      "lstrip": false,
      "rstrip": false,
      "normalized": false,
      "special": true
    },
    {
      "id": 100246,
      "content": "<image_229>",
      "single_word": false,
      "lstrip": false,
      "rstrip": false,
      "normalized": false,
      "special": true
    },
    {
      "id": 100247,
      "content": "<image_230>",
      "single_word": false,
      "lstrip": false,
      "rstrip": false,
      "normalized": false,
      "special": true
    },
    {
      "id": 100248,
      "content": "<image_231>",
      "single_word": false,
      "lstrip": false,
      "rstrip": false,
      "normalized": false,
      "special": true
    },
    {
      "id": 100249,
      "content": "<image_232>",
      "single_word": false,
      "lstrip": false,
      "rstrip": false,
      "normalized": false,
      "special": true
    },
    {
      "id": 100250,
      "content": "<image_233>",
      "single_word": false,
      "lstrip": false,
      "rstrip": false,
      "normalized": false,
      "special": true
    },
    {
      "id": 100251,
      "content": "<image_234>",
      "single_word": false,
      "lstrip": false,
      "rstrip": false,
      "normalized": false,
      "special": true
    },
    {
      "id": 100252,
      "content": "<image_235>",
      "single_word": false,
      "lstrip": false,
      "rstrip": false,
      "normalized": false,
      "special": true
    },
    {
      "id": 100253,
      "content": "<image_236>",
      "single_word": false,
      "lstrip": false,
      "rstrip": false,
      "normalized": false,
      "special": true
    },
    {
      "id": 100254,
      "content": "<image_237>",
      "single_word": false,
      "lstrip": false,
      "rstrip": false,
      "normalized": false,
      "special": true
    },
    {
      "id": 100255,
      "content": "<image_238>",
      "single_word": false,
      "lstrip": false,
      "rstrip": false,
      "normalized": false,
      "special": true
    },
    {
      "id": 100256,
      "content": "<image_239>",
      "single_word": false,
      "lstrip": false,
      "rstrip": false,
      "normalized": false,
      "special": true
    },
    {
      "id": 100257,
      "content": "<image_240>",
      "single_word": false,
      "lstrip": false,
      "rstrip": false,
      "normalized": false,
      "special": true
    },
    {
      "id": 100258,
      "content": "<image_241>",
      "single_word": false,
      "lstrip": false,
      "rstrip": false,
      "normalized": false,
      "special": true
    },
    {
      "id": 100259,
      "content": "<image_242>",
      "single_word": false,
      "lstrip": false,
      "rstrip": false,
      "normalized": false,
      "special": true
    },
    {
      "id": 100260,
      "content": "<image_243>",
      "single_word": false,
      "lstrip": false,
      "rstrip": false,
      "normalized": false,
      "special": true
    },
    {
      "id": 100261,
      "content": "<image_244>",
      "single_word": false,
      "lstrip": false,
      "rstrip": false,
      "normalized": false,
      "special": true
    },
    {
      "id": 100262,
      "content": "<image_245>",
      "single_word": false,
      "lstrip": false,
      "rstrip": false,
      "normalized": false,
      "special": true
    },
    {
      "id": 100263,
      "content": "<image_246>",
      "single_word": false,
      "lstrip": false,
      "rstrip": false,
      "normalized": false,
      "special": true
    },
    {
      "id": 100264,
      "content": "<image_247>",
      "single_word": false,
      "lstrip": false,
      "rstrip": false,
      "normalized": false,
      "special": true
    },
    {
      "id": 100265,
      "content": "<image_248>",
      "single_word": false,
      "lstrip": false,
      "rstrip": false,
      "normalized": false,
      "special": true
    },
    {
      "id": 100266,
      "content": "<image_249>",
      "single_word": false,
      "lstrip": false,
      "rstrip": false,
      "normalized": false,
      "special": true
    },
    {
      "id": 100267,
      "content": "<image_250>",
      "single_word": false,
      "lstrip": false,
      "rstrip": false,
      "normalized": false,
      "special": true
    },
    {
      "id": 100268,
      "content": "<image_251>",
      "single_word": false,
      "lstrip": false,
      "rstrip": false,
      "normalized": false,
      "special": true
    },
    {
      "id": 100269,
      "content": "<image_252>",
      "single_word": false,
      "lstrip": false,
      "rstrip": false,
      "normalized": false,
      "special": true
    },
    {
      "id": 100270,
      "content": "<image_253>",
      "single_word": false,
      "lstrip": false,
      "rstrip": false,
      "normalized": false,
      "special": true
    },
    {
      "id": 100271,
      "content": "<image_254>",
      "single_word": false,
      "lstrip": false,
      "rstrip": false,
      "normalized": false,
      "special": true
    },
    {
      "id": 100272,
      "content": "<image_255>",
      "single_word": false,
      "lstrip": false,
      "rstrip": false,
      "normalized": false,
      "special": true
    },
    {
      "id": 100273,
      "content": "<image_256>",
      "single_word": false,
      "lstrip": false,
      "rstrip": false,
      "normalized": false,
      "special": true
    },
    {
      "id": 100274,
      "content": "<image_257>",
      "single_word": false,
      "lstrip": false,
      "rstrip": false,
      "normalized": false,
      "special": true
    },
    {
      "id": 100275,
      "content": "<image_258>",
      "single_word": false,
      "lstrip": false,
      "rstrip": false,
      "normalized": false,
      "special": true
    },
    {
      "id": 100276,
      "content": "<image_259>",
      "single_word": false,
      "lstrip": false,
      "rstrip": false,
      "normalized": false,
      "special": true
    },
    {
      "id": 100277,
      "content": "<image_260>",
      "single_word": false,
      "lstrip": false,
      "rstrip": false,
      "normalized": false,
      "special": true
    },
    {
      "id": 100278,
      "content": "<image_261>",
      "single_word": false,
      "lstrip": false,
      "rstrip": false,
      "normalized": false,
      "special": true
    },
    {
      "id": 100279,
      "content": "<image_262>",
      "single_word": false,
      "lstrip": false,
      "rstrip": false,
      "normalized": false,
      "special": true
    },
    {
      "id": 100280,
      "content": "<image_263>",
      "single_word": false,
      "lstrip": false,
      "rstrip": false,
      "normalized": false,
      "special": true
    },
    {
      "id": 100281,
      "content": "<image_264>",
      "single_word": false,
      "lstrip": false,
      "rstrip": false,
      "normalized": false,
      "special": true
    },
    {
      "id": 100282,
      "content": "<image_265>",
      "single_word": false,
      "lstrip": false,
      "rstrip": false,
      "normalized": false,
      "special": true
    },
    {
      "id": 100283,
      "content": "<image_266>",
      "single_word": false,
      "lstrip": false,
      "rstrip": false,
      "normalized": false,
      "special": true
    },
    {
      "id": 100284,
      "content": "<image_267>",
      "single_word": false,
      "lstrip": false,
      "rstrip": false,
      "normalized": false,
      "special": true
    },
    {
      "id": 100285,
      "content": "<image_268>",
      "single_word": false,
      "lstrip": false,
      "rstrip": false,
      "normalized": false,
      "special": true
    },
    {
      "id": 100286,
      "content": "<image_269>",
      "single_word": false,
      "lstrip": false,
      "rstrip": false,
      "normalized": false,
      "special": true
    },
    {
      "id": 100287,
      "content": "<image_270>",
      "single_word": false,
      "lstrip": false,
      "rstrip": false,
      "normalized": false,
      "special": true
    },
    {
      "id": 100288,
      "content": "<image_271>",
      "single_word": false,
      "lstrip": false,
      "rstrip": false,
      "normalized": false,
      "special": true
    },
    {
      "id": 100289,
      "content": "<image_272>",
      "single_word": false,
      "lstrip": false,
      "rstrip": false,
      "normalized": false,
      "special": true
    },
    {
      "id": 100290,
      "content": "<image_273>",
      "single_word": false,
      "lstrip": false,
      "rstrip": false,
      "normalized": false,
      "special": true
    },
    {
      "id": 100291,
      "content": "<image_274>",
      "single_word": false,
      "lstrip": false,
      "rstrip": false,
      "normalized": false,
      "special": true
    },
    {
      "id": 100292,
      "content": "<image_275>",
      "single_word": false,
      "lstrip": false,
      "rstrip": false,
      "normalized": false,
      "special": true
    },
    {
      "id": 100293,
      "content": "<image_276>",
      "single_word": false,
      "lstrip": false,
      "rstrip": false,
      "normalized": false,
      "special": true
    },
    {
      "id": 100294,
      "content": "<image_277>",
      "single_word": false,
      "lstrip": false,
      "rstrip": false,
      "normalized": false,
      "special": true
    },
    {
      "id": 100295,
      "content": "<image_278>",
      "single_word": false,
      "lstrip": false,
      "rstrip": false,
      "normalized": false,
      "special": true
    },
    {
      "id": 100296,
      "content": "<image_279>",
      "single_word": false,
      "lstrip": false,
      "rstrip": false,
      "normalized": false,
      "special": true
    },
    {
      "id": 100297,
      "content": "<image_280>",
      "single_word": false,
      "lstrip": false,
      "rstrip": false,
      "normalized": false,
      "special": true
    },
    {
      "id": 100298,
      "content": "<image_281>",
      "single_word": false,
      "lstrip": false,
      "rstrip": false,
      "normalized": false,
      "special": true
    },
    {
      "id": 100299,
      "content": "<image_282>",
      "single_word": false,
      "lstrip": false,
      "rstrip": false,
      "normalized": false,
      "special": true
    },
    {
      "id": 100300,
      "content": "<image_283>",
      "single_word": false,
      "lstrip": false,
      "rstrip": false,
      "normalized": false,
      "special": true
    },
    {
      "id": 100301,
      "content": "<image_284>",
      "single_word": false,
      "lstrip": false,
      "rstrip": false,
      "normalized": false,
      "special": true
    },
    {
      "id": 100302,
      "content": "<image_285>",
      "single_word": false,
      "lstrip": false,
      "rstrip": false,
      "normalized": false,
      "special": true
    },
    {
      "id": 100303,
      "content": "<image_286>",
      "single_word": false,
      "lstrip": false,
      "rstrip": false,
      "normalized": false,
      "special": true
    },
    {
      "id": 100304,
      "content": "<image_287>",
      "single_word": false,
      "lstrip": false,
      "rstrip": false,
      "normalized": false,
      "special": true
    },
    {
      "id": 100305,
      "content": "<image_288>",
      "single_word": false,
      "lstrip": false,
      "rstrip": false,
      "normalized": false,
      "special": true
    },
    {
      "id": 100306,
      "content": "<image_289>",
      "single_word": false,
      "lstrip": false,
      "rstrip": false,
      "normalized": false,
      "special": true
    },
    {
      "id": 100307,
      "content": "<image_290>",
      "single_word": false,
      "lstrip": false,
      "rstrip": false,
      "normalized": false,
      "special": true
    },
    {
      "id": 100308,
      "content": "<image_291>",
      "single_word": false,
      "lstrip": false,
      "rstrip": false,
      "normalized": false,
      "special": true
    },
    {
      "id": 100309,
      "content": "<image_292>",
      "single_word": false,
      "lstrip": false,
      "rstrip": false,
      "normalized": false,
      "special": true
    },
    {
      "id": 100310,
      "content": "<image_293>",
      "single_word": false,
      "lstrip": false,
      "rstrip": false,
      "normalized": false,
      "special": true
    },
    {
      "id": 100311,
      "content": "<image_294>",
      "single_word": false,
      "lstrip": false,
      "rstrip": false,
      "normalized": false,
      "special": true
    },
    {
      "id": 100312,
      "content": "<image_295>",
      "single_word": false,
      "lstrip": false,
      "rstrip": false,
      "normalized": false,
      "special": true
    },
    {
      "id": 100313,
      "content": "<image_296>",
      "single_word": false,
      "lstrip": false,
      "rstrip": false,
      "normalized": false,
      "special": true
    },
    {
      "id": 100314,
      "content": "<image_297>",
      "single_word": false,
      "lstrip": false,
      "rstrip": false,
      "normalized": false,
      "special": true
    },
    {
      "id": 100315,
      "content": "<image_298>",
      "single_word": false,
      "lstrip": false,
      "rstrip": false,
      "normalized": false,
      "special": true
    },
    {
      "id": 100316,
      "content": "<image_299>",
      "single_word": false,
      "lstrip": false,
      "rstrip": false,
      "normalized": false,
      "special": true
    },
    {
      "id": 100317,
      "content": "<image_300>",
      "single_word": false,
      "lstrip": false,
      "rstrip": false,
      "normalized": false,
      "special": true
    },
    {
      "id": 100318,
      "content": "<image_301>",
      "single_word": false,
      "lstrip": false,
      "rstrip": false,
      "normalized": false,
      "special": true
    },
    {
      "id": 100319,
      "content": "<image_302>",
      "single_word": false,
      "lstrip": false,
      "rstrip": false,
      "normalized": false,
      "special": true
    },
    {
      "id": 100320,
      "content": "<image_303>",
      "single_word": false,
      "lstrip": false,
      "rstrip": false,
      "normalized": false,
      "special": true
    },
    {
      "id": 100321,
      "content": "<image_304>",
      "single_word": false,
      "lstrip": false,
      "rstrip": false,
      "normalized": false,
      "special": true
    },
    {
      "id": 100322,
      "content": "<image_305>",
      "single_word": false,
      "lstrip": false,
      "rstrip": false,
      "normalized": false,
      "special": true
    },
    {
      "id": 100323,
      "content": "<image_306>",
      "single_word": false,
      "lstrip": false,
      "rstrip": false,
      "normalized": false,
      "special": true
    },
    {
      "id": 100324,
      "content": "<image_307>",
      "single_word": false,
      "lstrip": false,
      "rstrip": false,
      "normalized": false,
      "special": true
    },
    {
      "id": 100325,
      "content": "<image_308>",
      "single_word": false,
      "lstrip": false,
      "rstrip": false,
      "normalized": false,
      "special": true
    },
    {
      "id": 100326,
      "content": "<image_309>",
      "single_word": false,
      "lstrip": false,
      "rstrip": false,
      "normalized": false,
      "special": true
    },
    {
      "id": 100327,
      "content": "<image_310>",
      "single_word": false,
      "lstrip": false,
      "rstrip": false,
      "normalized": false,
      "special": true
    },
    {
      "id": 100328,
      "content": "<image_311>",
      "single_word": false,
      "lstrip": false,
      "rstrip": false,
      "normalized": false,
      "special": true
    },
    {
      "id": 100329,
      "content": "<image_312>",
      "single_word": false,
      "lstrip": false,
      "rstrip": false,
      "normalized": false,
      "special": true
    },
    {
      "id": 100330,
      "content": "<image_313>",
      "single_word": false,
      "lstrip": false,
      "rstrip": false,
      "normalized": false,
      "special": true
    },
    {
      "id": 100331,
      "content": "<image_314>",
      "single_word": false,
      "lstrip": false,
      "rstrip": false,
      "normalized": false,
      "special": true
    },
    {
      "id": 100332,
      "content": "<image_315>",
      "single_word": false,
      "lstrip": false,
      "rstrip": false,
      "normalized": false,
      "special": true
    },
    {
      "id": 100333,
      "content": "<image_316>",
      "single_word": false,
      "lstrip": false,
      "rstrip": false,
      "normalized": false,
      "special": true
    },
    {
      "id": 100334,
      "content": "<image_317>",
      "single_word": false,
      "lstrip": false,
      "rstrip": false,
      "normalized": false,
      "special": true
    },
    {
      "id": 100335,
      "content": "<image_318>",
      "single_word": false,
      "lstrip": false,
      "rstrip": false,
      "normalized": false,
      "special": true
    },
    {
      "id": 100336,
      "content": "<image_319>",
      "single_word": false,
      "lstrip": false,
      "rstrip": false,
      "normalized": false,
      "special": true
    },
    {
      "id": 100337,
      "content": "<image_320>",
      "single_word": false,
      "lstrip": false,
      "rstrip": false,
      "normalized": false,
      "special": true
    },
    {
      "id": 100338,
      "content": "<image_321>",
      "single_word": false,
      "lstrip": false,
      "rstrip": false,
      "normalized": false,
      "special": true
    },
    {
      "id": 100339,
      "content": "<image_322>",
      "single_word": false,
      "lstrip": false,
      "rstrip": false,
      "normalized": false,
      "special": true
    },
    {
      "id": 100340,
      "content": "<image_323>",
      "single_word": false,
      "lstrip": false,
      "rstrip": false,
      "normalized": false,
      "special": true
    },
    {
      "id": 100341,
      "content": "<image_324>",
      "single_word": false,
      "lstrip": false,
      "rstrip": false,
      "normalized": false,
      "special": true
    },
    {
      "id": 100342,
      "content": "<image_325>",
      "single_word": false,
      "lstrip": false,
      "rstrip": false,
      "normalized": false,
      "special": true
    },
    {
      "id": 100343,
      "content": "<image_326>",
      "single_word": false,
      "lstrip": false,
      "rstrip": false,
      "normalized": false,
      "special": true
    },
    {
      "id": 100344,
      "content": "<image_327>",
      "single_word": false,
      "lstrip": false,
      "rstrip": false,
      "normalized": false,
      "special": true
    },
    {
      "id": 100345,
      "content": "<image_328>",
      "single_word": false,
      "lstrip": false,
      "rstrip": false,
      "normalized": false,
      "special": true
    },
    {
      "id": 100346,
      "content": "<image_329>",
      "single_word": false,
      "lstrip": false,
      "rstrip": false,
      "normalized": false,
      "special": true
    },
    {
      "id": 100347,
      "content": "<image_330>",
      "single_word": false,
      "lstrip": false,
      "rstrip": false,
      "normalized": false,
      "special": true
    },
    {
      "id": 100348,
      "content": "<image_331>",
      "single_word": false,
      "lstrip": false,
      "rstrip": false,
      "normalized": false,
      "special": true
    },
    {
      "id": 100349,
      "content": "<image_332>",
      "single_word": false,
      "lstrip": false,
      "rstrip": false,
      "normalized": false,
      "special": true
    },
    {
      "id": 100350,
      "content": "<image_333>",
      "single_word": false,
      "lstrip": false,
      "rstrip": false,
      "normalized": false,
      "special": true
    },
    {
      "id": 100351,
      "content": "<image_334>",
      "single_word": false,
      "lstrip": false,
      "rstrip": false,
      "normalized": false,
      "special": true
    },
    {
      "id": 100352,
      "content": "<image_335>",
      "single_word": false,
      "lstrip": false,
      "rstrip": false,
      "normalized": false,
      "special": true
    },
    {
      "id": 100353,
      "content": "<image_336>",
      "single_word": false,
      "lstrip": false,
      "rstrip": false,
      "normalized": false,
      "special": true
    },
    {
      "id": 100354,
      "content": "<image_337>",
      "single_word": false,
      "lstrip": false,
      "rstrip": false,
      "normalized": false,
      "special": true
    },
    {
      "id": 100355,
      "content": "<image_338>",
      "single_word": false,
      "lstrip": false,
      "rstrip": false,
      "normalized": false,
      "special": true
    },
    {
      "id": 100356,
      "content": "<image_339>",
      "single_word": false,
      "lstrip": false,
      "rstrip": false,
      "normalized": false,
      "special": true
    },
    {
      "id": 100357,
      "content": "<image_340>",
      "single_word": false,
      "lstrip": false,
      "rstrip": false,
      "normalized": false,
      "special": true
    },
    {
      "id": 100358,
      "content": "<image_341>",
      "single_word": false,
      "lstrip": false,
      "rstrip": false,
      "normalized": false,
      "special": true
    },
    {
      "id": 100359,
      "content": "<image_342>",
      "single_word": false,
      "lstrip": false,
      "rstrip": false,
      "normalized": false,
      "special": true
    },
    {
      "id": 100360,
      "content": "<image_343>",
      "single_word": false,
      "lstrip": false,
      "rstrip": false,
      "normalized": false,
      "special": true
    },
    {
      "id": 100361,
      "content": "<image_344>",
      "single_word": false,
      "lstrip": false,
      "rstrip": false,
      "normalized": false,
      "special": true
    },
    {
      "id": 100362,
      "content": "<image_345>",
      "single_word": false,
      "lstrip": false,
      "rstrip": false,
      "normalized": false,
      "special": true
    },
    {
      "id": 100363,
      "content": "<image_346>",
      "single_word": false,
      "lstrip": false,
      "rstrip": false,
      "normalized": false,
      "special": true
    },
    {
      "id": 100364,
      "content": "<image_347>",
      "single_word": false,
      "lstrip": false,
      "rstrip": false,
      "normalized": false,
      "special": true
    },
    {
      "id": 100365,
      "content": "<image_348>",
      "single_word": false,
      "lstrip": false,
      "rstrip": false,
      "normalized": false,
      "special": true
    },
    {
      "id": 100366,
      "content": "<image_349>",
      "single_word": false,
      "lstrip": false,
      "rstrip": false,
      "normalized": false,
      "special": true
    },
    {
      "id": 100367,
      "content": "<image_350>",
      "single_word": false,
      "lstrip": false,
      "rstrip": false,
      "normalized": false,
      "special": true
    },
    {
      "id": 100368,
      "content": "<image_351>",
      "single_word": false,
      "lstrip": false,
      "rstrip": false,
      "normalized": false,
      "special": true
    },
    {
      "id": 100369,
      "content": "<image_352>",
      "single_word": false,
      "lstrip": false,
      "rstrip": false,
      "normalized": false,
      "special": true
    },
    {
      "id": 100370,
      "content": "<image_353>",
      "single_word": false,
      "lstrip": false,
      "rstrip": false,
      "normalized": false,
      "special": true
    },
    {
      "id": 100371,
      "content": "<image_354>",
      "single_word": false,
      "lstrip": false,
      "rstrip": false,
      "normalized": false,
      "special": true
    },
    {
      "id": 100372,
      "content": "<image_355>",
      "single_word": false,
      "lstrip": false,
      "rstrip": false,
      "normalized": false,
      "special": true
    },
    {
      "id": 100373,
      "content": "<image_356>",
      "single_word": false,
      "lstrip": false,
      "rstrip": false,
      "normalized": false,
      "special": true
    },
    {
      "id": 100374,
      "content": "<image_357>",
      "single_word": false,
      "lstrip": false,
      "rstrip": false,
      "normalized": false,
      "special": true
    },
    {
      "id": 100375,
      "content": "<image_358>",
      "single_word": false,
      "lstrip": false,
      "rstrip": false,
      "normalized": false,
      "special": true
    },
    {
      "id": 100376,
      "content": "<image_359>",
      "single_word": false,
      "lstrip": false,
      "rstrip": false,
      "normalized": false,
      "special": true
    },
    {
      "id": 100377,
      "content": "<image_360>",
      "single_word": false,
      "lstrip": false,
      "rstrip": false,
      "normalized": false,
      "special": true
    },
    {
      "id": 100378,
      "content": "<image_361>",
      "single_word": false,
      "lstrip": false,
      "rstrip": false,
      "normalized": false,
      "special": true
    },
    {
      "id": 100379,
      "content": "<image_362>",
      "single_word": false,
      "lstrip": false,
      "rstrip": false,
      "normalized": false,
      "special": true
    },
    {
      "id": 100380,
      "content": "<image_363>",
      "single_word": false,
      "lstrip": false,
      "rstrip": false,
      "normalized": false,
      "special": true
    },
    {
      "id": 100381,
      "content": "<image_364>",
      "single_word": false,
      "lstrip": false,
      "rstrip": false,
      "normalized": false,
      "special": true
    },
    {
      "id": 100382,
      "content": "<image_365>",
      "single_word": false,
      "lstrip": false,
      "rstrip": false,
      "normalized": false,
      "special": true
    },
    {
      "id": 100383,
      "content": "<image_366>",
      "single_word": false,
      "lstrip": false,
      "rstrip": false,
      "normalized": false,
      "special": true
    },
    {
      "id": 100384,
      "content": "<image_367>",
      "single_word": false,
      "lstrip": false,
      "rstrip": false,
      "normalized": false,
      "special": true
    },
    {
      "id": 100385,
      "content": "<image_368>",
      "single_word": false,
      "lstrip": false,
      "rstrip": false,
      "normalized": false,
      "special": true
    },
    {
      "id": 100386,
      "content": "<image_369>",
      "single_word": false,
      "lstrip": false,
      "rstrip": false,
      "normalized": false,
      "special": true
    },
    {
      "id": 100387,
      "content": "<image_370>",
      "single_word": false,
      "lstrip": false,
      "rstrip": false,
      "normalized": false,
      "special": true
    },
    {
      "id": 100388,
      "content": "<image_371>",
      "single_word": false,
      "lstrip": false,
      "rstrip": false,
      "normalized": false,
      "special": true
    },
    {
      "id": 100389,
      "content": "<image_372>",
      "single_word": false,
      "lstrip": false,
      "rstrip": false,
      "normalized": false,
      "special": true
    },
    {
      "id": 100390,
      "content": "<image_373>",
      "single_word": false,
      "lstrip": false,
      "rstrip": false,
      "normalized": false,
      "special": true
    },
    {
      "id": 100391,
      "content": "<image_374>",
      "single_word": false,
      "lstrip": false,
      "rstrip": false,
      "normalized": false,
      "special": true
    },
    {
      "id": 100392,
      "content": "<image_375>",
      "single_word": false,
      "lstrip": false,
      "rstrip": false,
      "normalized": false,
      "special": true
    },
    {
      "id": 100393,
      "content": "<image_376>",
      "single_word": false,
      "lstrip": false,
      "rstrip": false,
      "normalized": false,
      "special": true
    },
    {
      "id": 100394,
      "content": "<image_377>",
      "single_word": false,
      "lstrip": false,
      "rstrip": false,
      "normalized": false,
      "special": true
    },
    {
      "id": 100395,
      "content": "<image_378>",
      "single_word": false,
      "lstrip": false,
      "rstrip": false,
      "normalized": false,
      "special": true
    },
    {
      "id": 100396,
      "content": "<image_379>",
      "single_word": false,
      "lstrip": false,
      "rstrip": false,
      "normalized": false,
      "special": true
    },
    {
      "id": 100397,
      "content": "<image_380>",
      "single_word": false,
      "lstrip": false,
      "rstrip": false,
      "normalized": false,
      "special": true
    },
    {
      "id": 100398,
      "content": "<image_381>",
      "single_word": false,
      "lstrip": false,
      "rstrip": false,
      "normalized": false,
      "special": true
    },
    {
      "id": 100399,
      "content": "<image_382>",
      "single_word": false,
      "lstrip": false,
      "rstrip": false,
      "normalized": false,
      "special": true
    },
    {
      "id": 100400,
      "content": "<image_383>",
      "single_word": false,
      "lstrip": false,
      "rstrip": false,
      "normalized": false,
      "special": true
    },
    {
      "id": 100401,
      "content": "<image_384>",
      "single_word": false,
      "lstrip": false,
      "rstrip": false,
      "normalized": false,
      "special": true
    },
    {
      "id": 100402,
      "content": "<image_385>",
      "single_word": false,
      "lstrip": false,
      "rstrip": false,
      "normalized": false,
      "special": true
    },
    {
      "id": 100403,
      "content": "<image_386>",
      "single_word": false,
      "lstrip": false,
      "rstrip": false,
      "normalized": false,
      "special": true
    },
    {
      "id": 100404,
      "content": "<image_387>",
      "single_word": false,
      "lstrip": false,
      "rstrip": false,
      "normalized": false,
      "special": true
    },
    {
      "id": 100405,
      "content": "<image_388>",
      "single_word": false,
      "lstrip": false,
      "rstrip": false,
      "normalized": false,
      "special": true
    },
    {
      "id": 100406,
      "content": "<image_389>",
      "single_word": false,
      "lstrip": false,
      "rstrip": false,
      "normalized": false,
      "special": true
    },
    {
      "id": 100407,
      "content": "<image_390>",
      "single_word": false,
      "lstrip": false,
      "rstrip": false,
      "normalized": false,
      "special": true
    },
    {
      "id": 100408,
      "content": "<image_391>",
      "single_word": false,
      "lstrip": false,
      "rstrip": false,
      "normalized": false,
      "special": true
    },
    {
      "id": 100409,
      "content": "<image_392>",
      "single_word": false,
      "lstrip": false,
      "rstrip": false,
      "normalized": false,
      "special": true
    },
    {
      "id": 100410,
      "content": "<image_393>",
      "single_word": false,
      "lstrip": false,
      "rstrip": false,
      "normalized": false,
      "special": true
    },
    {
      "id": 100411,
      "content": "<image_394>",
      "single_word": false,
      "lstrip": false,
      "rstrip": false,
      "normalized": false,
      "special": true
    },
    {
      "id": 100412,
      "content": "<image_395>",
      "single_word": false,
      "lstrip": false,
      "rstrip": false,
      "normalized": false,
      "special": true
    },
    {
      "id": 100413,
      "content": "<image_396>",
      "single_word": false,
      "lstrip": false,
      "rstrip": false,
      "normalized": false,
      "special": true
    },
    {
      "id": 100414,
      "content": "<image_397>",
      "single_word": false,
      "lstrip": false,
      "rstrip": false,
      "normalized": false,
      "special": true
    },
    {
      "id": 100415,
      "content": "<image_398>",
      "single_word": false,
      "lstrip": false,
      "rstrip": false,
      "normalized": false,
      "special": true
    },
    {
      "id": 100416,
      "content": "<image_399>",
      "single_word": false,
      "lstrip": false,
      "rstrip": false,
      "normalized": false,
      "special": true
    },
    {
      "id": 100417,
      "content": "<image_400>",
      "single_word": false,
      "lstrip": false,
      "rstrip": false,
      "normalized": false,
      "special": true
    },
    {
      "id": 100418,
      "content": "<image_401>",
      "single_word": false,
      "lstrip": false,
      "rstrip": false,
      "normalized": false,
      "special": true
    },
    {
      "id": 100419,
      "content": "<image_402>",
      "single_word": false,
      "lstrip": false,
      "rstrip": false,
      "normalized": false,
      "special": true
    },
    {
      "id": 100420,
      "content": "<image_403>",
      "single_word": false,
      "lstrip": false,
      "rstrip": false,
      "normalized": false,
      "special": true
    },
    {
      "id": 100421,
      "content": "<image_404>",
      "single_word": false,
      "lstrip": false,
      "rstrip": false,
      "normalized": false,
      "special": true
    },
    {
      "id": 100422,
      "content": "<image_405>",
      "single_word": false,
      "lstrip": false,
      "rstrip": false,
      "normalized": false,
      "special": true
    },
    {
      "id": 100423,
      "content": "<image_406>",
      "single_word": false,
      "lstrip": false,
      "rstrip": false,
      "normalized": false,
      "special": true
    },
    {
      "id": 100424,
      "content": "<image_407>",
      "single_word": false,
      "lstrip": false,
      "rstrip": false,
      "normalized": false,
      "special": true
    },
    {
      "id": 100425,
      "content": "<image_408>",
      "single_word": false,
      "lstrip": false,
      "rstrip": false,
      "normalized": false,
      "special": true
    },
    {
      "id": 100426,
      "content": "<image_409>",
      "single_word": false,
      "lstrip": false,
      "rstrip": false,
      "normalized": false,
      "special": true
    },
    {
      "id": 100427,
      "content": "<image_410>",
      "single_word": false,
      "lstrip": false,
      "rstrip": false,
      "normalized": false,
      "special": true
    },
    {
      "id": 100428,
      "content": "<image_411>",
      "single_word": false,
      "lstrip": false,
      "rstrip": false,
      "normalized": false,
      "special": true
    },
    {
      "id": 100429,
      "content": "<image_412>",
      "single_word": false,
      "lstrip": false,
      "rstrip": false,
      "normalized": false,
      "special": true
    },
    {
      "id": 100430,
      "content": "<image_413>",
      "single_word": false,
      "lstrip": false,
      "rstrip": false,
      "normalized": false,
      "special": true
    },
    {
      "id": 100431,
      "content": "<image_414>",
      "single_word": false,
      "lstrip": false,
      "rstrip": false,
      "normalized": false,
      "special": true
    },
    {
      "id": 100432,
      "content": "<image_415>",
      "single_word": false,
      "lstrip": false,
      "rstrip": false,
      "normalized": false,
      "special": true
    },
    {
      "id": 100433,
      "content": "<image_416>",
      "single_word": false,
      "lstrip": false,
      "rstrip": false,
      "normalized": false,
      "special": true
    },
    {
      "id": 100434,
      "content": "<image_417>",
      "single_word": false,
      "lstrip": false,
      "rstrip": false,
      "normalized": false,
      "special": true
    },
    {
      "id": 100435,
      "content": "<image_418>",
      "single_word": false,
      "lstrip": false,
      "rstrip": false,
      "normalized": false,
      "special": true
    },
    {
      "id": 100436,
      "content": "<image_419>",
      "single_word": false,
      "lstrip": false,
      "rstrip": false,
      "normalized": false,
      "special": true
    },
    {
      "id": 100437,
      "content": "<image_420>",
      "single_word": false,
      "lstrip": false,
      "rstrip": false,
      "normalized": false,
      "special": true
    },
    {
      "id": 100438,
      "content": "<image_421>",
      "single_word": false,
      "lstrip": false,
      "rstrip": false,
      "normalized": false,
      "special": true
    },
    {
      "id": 100439,
      "content": "<image_422>",
      "single_word": false,
      "lstrip": false,
      "rstrip": false,
      "normalized": false,
      "special": true
    },
    {
      "id": 100440,
      "content": "<image_423>",
      "single_word": false,
      "lstrip": false,
      "rstrip": false,
      "normalized": false,
      "special": true
    },
    {
      "id": 100441,
      "content": "<image_424>",
      "single_word": false,
      "lstrip": false,
      "rstrip": false,
      "normalized": false,
      "special": true
    },
    {
      "id": 100442,
      "content": "<image_425>",
      "single_word": false,
      "lstrip": false,
      "rstrip": false,
      "normalized": false,
      "special": true
    },
    {
      "id": 100443,
      "content": "<image_426>",
      "single_word": false,
      "lstrip": false,
      "rstrip": false,
      "normalized": false,
      "special": true
    },
    {
      "id": 100444,
      "content": "<image_427>",
      "single_word": false,
      "lstrip": false,
      "rstrip": false,
      "normalized": false,
      "special": true
    },
    {
      "id": 100445,
      "content": "<image_428>",
      "single_word": false,
      "lstrip": false,
      "rstrip": false,
      "normalized": false,
      "special": true
    },
    {
      "id": 100446,
      "content": "<image_429>",
      "single_word": false,
      "lstrip": false,
      "rstrip": false,
      "normalized": false,
      "special": true
    },
    {
      "id": 100447,
      "content": "<image_430>",
      "single_word": false,
      "lstrip": false,
      "rstrip": false,
      "normalized": false,
      "special": true
    },
    {
      "id": 100448,
      "content": "<image_431>",
      "single_word": false,
      "lstrip": false,
      "rstrip": false,
      "normalized": false,
      "special": true
    },
    {
      "id": 100449,
      "content": "<image_432>",
      "single_word": false,
      "lstrip": false,
      "rstrip": false,
      "normalized": false,
      "special": true
    },
    {
      "id": 100450,
      "content": "<image_433>",
      "single_word": false,
      "lstrip": false,
      "rstrip": false,
      "normalized": false,
      "special": true
    },
    {
      "id": 100451,
      "content": "<image_434>",
      "single_word": false,
      "lstrip": false,
      "rstrip": false,
      "normalized": false,
      "special": true
    },
    {
      "id": 100452,
      "content": "<image_435>",
      "single_word": false,
      "lstrip": false,
      "rstrip": false,
      "normalized": false,
      "special": true
    },
    {
      "id": 100453,
      "content": "<image_436>",
      "single_word": false,
      "lstrip": false,
      "rstrip": false,
      "normalized": false,
      "special": true
    },
    {
      "id": 100454,
      "content": "<image_437>",
      "single_word": false,
      "lstrip": false,
      "rstrip": false,
      "normalized": false,
      "special": true
    },
    {
      "id": 100455,
      "content": "<image_438>",
      "single_word": false,
      "lstrip": false,
      "rstrip": false,
      "normalized": false,
      "special": true
    },
    {
      "id": 100456,
      "content": "<image_439>",
      "single_word": false,
      "lstrip": false,
      "rstrip": false,
      "normalized": false,
      "special": true
    },
    {
      "id": 100457,
      "content": "<image_440>",
      "single_word": false,
      "lstrip": false,
      "rstrip": false,
      "normalized": false,
      "special": true
    },
    {
      "id": 100458,
      "content": "<image_441>",
      "single_word": false,
      "lstrip": false,
      "rstrip": false,
      "normalized": false,
      "special": true
    },
    {
      "id": 100459,
      "content": "<image_442>",
      "single_word": false,
      "lstrip": false,
      "rstrip": false,
      "normalized": false,
      "special": true
    },
    {
      "id": 100460,
      "content": "<image_443>",
      "single_word": false,
      "lstrip": false,
      "rstrip": false,
      "normalized": false,
      "special": true
    },
    {
      "id": 100461,
      "content": "<image_444>",
      "single_word": false,
      "lstrip": false,
      "rstrip": false,
      "normalized": false,
      "special": true
    },
    {
      "id": 100462,
      "content": "<image_445>",
      "single_word": false,
      "lstrip": false,
      "rstrip": false,
      "normalized": false,
      "special": true
    },
    {
      "id": 100463,
      "content": "<image_446>",
      "single_word": false,
      "lstrip": false,
      "rstrip": false,
      "normalized": false,
      "special": true
    },
    {
      "id": 100464,
      "content": "<image_447>",
      "single_word": false,
      "lstrip": false,
      "rstrip": false,
      "normalized": false,
      "special": true
    },
    {
      "id": 100465,
      "content": "<image_448>",
      "single_word": false,
      "lstrip": false,
      "rstrip": false,
      "normalized": false,
      "special": true
    },
    {
      "id": 100466,
      "content": "<image_449>",
      "single_word": false,
      "lstrip": false,
      "rstrip": false,
      "normalized": false,
      "special": true
    },
    {
      "id": 100467,
      "content": "<image_450>",
      "single_word": false,
      "lstrip": false,
      "rstrip": false,
      "normalized": false,
      "special": true
    },
    {
      "id": 100468,
      "content": "<image_451>",
      "single_word": false,
      "lstrip": false,
      "rstrip": false,
      "normalized": false,
      "special": true
    },
    {
      "id": 100469,
      "content": "<image_452>",
      "single_word": false,
      "lstrip": false,
      "rstrip": false,
      "normalized": false,
      "special": true
    },
    {
      "id": 100470,
      "content": "<image_453>",
      "single_word": false,
      "lstrip": false,
      "rstrip": false,
      "normalized": false,
      "special": true
    },
    {
      "id": 100471,
      "content": "<image_454>",
      "single_word": false,
      "lstrip": false,
      "rstrip": false,
      "normalized": false,
      "special": true
    },
    {
      "id": 100472,
      "content": "<image_455>",
      "single_word": false,
      "lstrip": false,
      "rstrip": false,
      "normalized": false,
      "special": true
    },
    {
      "id": 100473,
      "content": "<image_456>",
      "single_word": false,
      "lstrip": false,
      "rstrip": false,
      "normalized": false,
      "special": true
    },
    {
      "id": 100474,
      "content": "<image_457>",
      "single_word": false,
      "lstrip": false,
      "rstrip": false,
      "normalized": false,
      "special": true
    },
    {
      "id": 100475,
      "content": "<image_458>",
      "single_word": false,
      "lstrip": false,
      "rstrip": false,
      "normalized": false,
      "special": true
    },
    {
      "id": 100476,
      "content": "<image_459>",
      "single_word": false,
      "lstrip": false,
      "rstrip": false,
      "normalized": false,
      "special": true
    },
    {
      "id": 100477,
      "content": "<image_460>",
      "single_word": false,
      "lstrip": false,
      "rstrip": false,
      "normalized": false,
      "special": true
    },
    {
      "id": 100478,
      "content": "<image_461>",
      "single_word": false,
      "lstrip": false,
      "rstrip": false,
      "normalized": false,
      "special": true
    },
    {
      "id": 100479,
      "content": "<image_462>",
      "single_word": false,
      "lstrip": false,
      "rstrip": false,
      "normalized": false,
      "special": true
    },
    {
      "id": 100480,
      "content": "<image_463>",
      "single_word": false,
      "lstrip": false,
      "rstrip": false,
      "normalized": false,
      "special": true
    },
    {
      "id": 100481,
      "content": "<image_464>",
      "single_word": false,
      "lstrip": false,
      "rstrip": false,
      "normalized": false,
      "special": true
    },
    {
      "id": 100482,
      "content": "<image_465>",
      "single_word": false,
      "lstrip": false,
      "rstrip": false,
      "normalized": false,
      "special": true
    },
    {
      "id": 100483,
      "content": "<image_466>",
      "single_word": false,
      "lstrip": false,
      "rstrip": false,
      "normalized": false,
      "special": true
    },
    {
      "id": 100484,
      "content": "<image_467>",
      "single_word": false,
      "lstrip": false,
      "rstrip": false,
      "normalized": false,
      "special": true
    },
    {
      "id": 100485,
      "content": "<image_468>",
      "single_word": false,
      "lstrip": false,
      "rstrip": false,
      "normalized": false,
      "special": true
    },
    {
      "id": 100486,
      "content": "<image_469>",
      "single_word": false,
      "lstrip": false,
      "rstrip": false,
      "normalized": false,
      "special": true
    },
    {
      "id": 100487,
      "content": "<image_470>",
      "single_word": false,
      "lstrip": false,
      "rstrip": false,
      "normalized": false,
      "special": true
    },
    {
      "id": 100488,
      "content": "<image_471>",
      "single_word": false,
      "lstrip": false,
      "rstrip": false,
      "normalized": false,
      "special": true
    },
    {
      "id": 100489,
      "content": "<image_472>",
      "single_word": false,
      "lstrip": false,
      "rstrip": false,
      "normalized": false,
      "special": true
    },
    {
      "id": 100490,
      "content": "<image_473>",
      "single_word": false,
      "lstrip": false,
      "rstrip": false,
      "normalized": false,
      "special": true
    },
    {
      "id": 100491,
      "content": "<image_474>",
      "single_word": false,
      "lstrip": false,
      "rstrip": false,
      "normalized": false,
      "special": true
    },
    {
      "id": 100492,
      "content": "<image_475>",
      "single_word": false,
      "lstrip": false,
      "rstrip": false,
      "normalized": false,
      "special": true
    },
    {
      "id": 100493,
      "content": "<image_476>",
      "single_word": false,
      "lstrip": false,
      "rstrip": false,
      "normalized": false,
      "special": true
    },
    {
      "id": 100494,
      "content": "<image_477>",
      "single_word": false,
      "lstrip": false,
      "rstrip": false,
      "normalized": false,
      "special": true
    },
    {
      "id": 100495,
      "content": "<image_478>",
      "single_word": false,
      "lstrip": false,
      "rstrip": false,
      "normalized": false,
      "special": true
    },
    {
      "id": 100496,
      "content": "<image_479>",
      "single_word": false,
      "lstrip": false,
      "rstrip": false,
      "normalized": false,
      "special": true
    },
    {
      "id": 100497,
      "content": "<image_480>",
      "single_word": false,
      "lstrip": false,
      "rstrip": false,
      "normalized": false,
      "special": true
    },
    {
      "id": 100498,
      "content": "<image_481>",
      "single_word": false,
      "lstrip": false,
      "rstrip": false,
      "normalized": false,
      "special": true
    },
    {
      "id": 100499,
      "content": "<image_482>",
      "single_word": false,
      "lstrip": false,
      "rstrip": false,
      "normalized": false,
      "special": true
    },
    {
      "id": 100500,
      "content": "<image_483>",
      "single_word": false,
      "lstrip": false,
      "rstrip": false,
      "normalized": false,
      "special": true
    },
    {
      "id": 100501,
      "content": "<image_484>",
      "single_word": false,
      "lstrip": false,
      "rstrip": false,
      "normalized": false,
      "special": true
    },
    {
      "id": 100502,
      "content": "<image_485>",
      "single_word": false,
      "lstrip": false,
      "rstrip": false,
      "normalized": false,
      "special": true
    },
    {
      "id": 100503,
      "content": "<image_486>",
      "single_word": false,
      "lstrip": false,
      "rstrip": false,
      "normalized": false,
      "special": true
    },
    {
      "id": 100504,
      "content": "<image_487>",
      "single_word": false,
      "lstrip": false,
      "rstrip": false,
      "normalized": false,
      "special": true
    },
    {
      "id": 100505,
      "content": "<image_488>",
      "single_word": false,
      "lstrip": false,
      "rstrip": false,
      "normalized": false,
      "special": true
    },
    {
      "id": 100506,
      "content": "<image_489>",
      "single_word": false,
      "lstrip": false,
      "rstrip": false,
      "normalized": false,
      "special": true
    },
    {
      "id": 100507,
      "content": "<image_490>",
      "single_word": false,
      "lstrip": false,
      "rstrip": false,
      "normalized": false,
      "special": true
    },
    {
      "id": 100508,
      "content": "<image_491>",
      "single_word": false,
      "lstrip": false,
      "rstrip": false,
      "normalized": false,
      "special": true
    },
    {
      "id": 100509,
      "content": "<image_492>",
      "single_word": false,
      "lstrip": false,
      "rstrip": false,
      "normalized": false,
      "special": true
    },
    {
      "id": 100510,
      "content": "<image_493>",
      "single_word": false,
      "lstrip": false,
      "rstrip": false,
      "normalized": false,
      "special": true
    },
    {
      "id": 100511,
      "content": "<image_494>",
      "single_word": false,
      "lstrip": false,
      "rstrip": false,
      "normalized": false,
      "special": true
    },
    {
      "id": 100512,
      "content": "<image_495>",
      "single_word": false,
      "lstrip": false,
      "rstrip": false,
      "normalized": false,
      "special": true
    },
    {
      "id": 100513,
      "content": "<image_496>",
      "single_word": false,
      "lstrip": false,
      "rstrip": false,
      "normalized": false,
      "special": true
    },
    {
      "id": 100514,
      "content": "<image_497>",
      "single_word": false,
      "lstrip": false,
      "rstrip": false,
      "normalized": false,
      "special": true
    },
    {
      "id": 100515,
      "content": "<image_498>",
      "single_word": false,
      "lstrip": false,
      "rstrip": false,
      "normalized": false,
      "special": true
    },
    {
      "id": 100516,
      "content": "<image_499>",
      "single_word": false,
      "lstrip": false,
      "rstrip": false,
      "normalized": false,
      "special": true
    },
    {
      "id": 100517,
      "content": "<image_500>",
      "single_word": false,
      "lstrip": false,
      "rstrip": false,
      "normalized": false,
      "special": true
    },
    {
      "id": 100518,
      "content": "<image_501>",
      "single_word": false,
      "lstrip": false,
      "rstrip": false,
      "normalized": false,
      "special": true
    },
    {
      "id": 100519,
      "content": "<image_502>",
      "single_word": false,
      "lstrip": false,
      "rstrip": false,
      "normalized": false,
      "special": true
    },
    {
      "id": 100520,
      "content": "<image_503>",
      "single_word": false,
      "lstrip": false,
      "rstrip": false,
      "normalized": false,
      "special": true
    },
    {
      "id": 100521,
      "content": "<image_504>",
      "single_word": false,
      "lstrip": false,
      "rstrip": false,
      "normalized": false,
      "special": true
    },
    {
      "id": 100522,
      "content": "<image_505>",
      "single_word": false,
      "lstrip": false,
      "rstrip": false,
      "normalized": false,
      "special": true
    },
    {
      "id": 100523,
      "content": "<image_506>",
      "single_word": false,
      "lstrip": false,
      "rstrip": false,
      "normalized": false,
      "special": true
    },
    {
      "id": 100524,
      "content": "<image_507>",
      "single_word": false,
      "lstrip": false,
      "rstrip": false,
      "normalized": false,
      "special": true
    },
    {
      "id": 100525,
      "content": "<image_508>",
      "single_word": false,
      "lstrip": false,
      "rstrip": false,
      "normalized": false,
      "special": true
    },
    {
      "id": 100526,
      "content": "<image_509>",
      "single_word": false,
      "lstrip": false,
      "rstrip": false,
      "normalized": false,
      "special": true
    },
    {
      "id": 100527,
      "content": "<image_510>",
      "single_word": false,
      "lstrip": false,
      "rstrip": false,
      "normalized": false,
      "special": true
    },
    {
      "id": 100528,
      "content": "<image_511>",
      "single_word": false,
      "lstrip": false,
      "rstrip": false,
      "normalized": false,
      "special": true
    },
    {
      "id": 100529,
      "content": "<image_512>",
      "single_word": false,
      "lstrip": false,
      "rstrip": false,
      "normalized": false,
      "special": true
    },
    {
      "id": 100530,
      "content": "<image_513>",
      "single_word": false,
      "lstrip": false,
      "rstrip": false,
      "normalized": false,
      "special": true
    },
    {
      "id": 100531,
      "content": "<image_514>",
      "single_word": false,
      "lstrip": false,
      "rstrip": false,
      "normalized": false,
      "special": true
    },
    {
      "id": 100532,
      "content": "<image_515>",
      "single_word": false,
      "lstrip": false,
      "rstrip": false,
      "normalized": false,
      "special": true
    },
    {
      "id": 100533,
      "content": "<image_516>",
      "single_word": false,
      "lstrip": false,
      "rstrip": false,
      "normalized": false,
      "special": true
    },
    {
      "id": 100534,
      "content": "<image_517>",
      "single_word": false,
      "lstrip": false,
      "rstrip": false,
      "normalized": false,
      "special": true
    },
    {
      "id": 100535,
      "content": "<image_518>",
      "single_word": false,
      "lstrip": false,
      "rstrip": false,
      "normalized": false,
      "special": true
    },
    {
      "id": 100536,
      "content": "<image_519>",
      "single_word": false,
      "lstrip": false,
      "rstrip": false,
      "normalized": false,
      "special": true
    },
    {
      "id": 100537,
      "content": "<image_520>",
      "single_word": false,
      "lstrip": false,
      "rstrip": false,
      "normalized": false,
      "special": true
    },
    {
      "id": 100538,
      "content": "<image_521>",
      "single_word": false,
      "lstrip": false,
      "rstrip": false,
      "normalized": false,
      "special": true
    },
    {
      "id": 100539,
      "content": "<image_522>",
      "single_word": false,
      "lstrip": false,
      "rstrip": false,
      "normalized": false,
      "special": true
    },
    {
      "id": 100540,
      "content": "<image_523>",
      "single_word": false,
      "lstrip": false,
      "rstrip": false,
      "normalized": false,
      "special": true
    },
    {
      "id": 100541,
      "content": "<image_524>",
      "single_word": false,
      "lstrip": false,
      "rstrip": false,
      "normalized": false,
      "special": true
    },
    {
      "id": 100542,
      "content": "<image_525>",
      "single_word": false,
      "lstrip": false,
      "rstrip": false,
      "normalized": false,
      "special": true
    },
    {
      "id": 100543,
      "content": "<image_526>",
      "single_word": false,
      "lstrip": false,
      "rstrip": false,
      "normalized": false,
      "special": true
    },
    {
      "id": 100544,
      "content": "<image_527>",
      "single_word": false,
      "lstrip": false,
      "rstrip": false,
      "normalized": false,
      "special": true
    },
    {
      "id": 100545,
      "content": "<image_528>",
      "single_word": false,
      "lstrip": false,
      "rstrip": false,
      "normalized": false,
      "special": true
    },
    {
      "id": 100546,
      "content": "<image_529>",
      "single_word": false,
      "lstrip": false,
      "rstrip": false,
      "normalized": false,
      "special": true
    },
    {
      "id": 100547,
      "content": "<image_530>",
      "single_word": false,
      "lstrip": false,
      "rstrip": false,
      "normalized": false,
      "special": true
    },
    {
      "id": 100548,
      "content": "<image_531>",
      "single_word": false,
      "lstrip": false,
      "rstrip": false,
      "normalized": false,
      "special": true
    },
    {
      "id": 100549,
      "content": "<image_532>",
      "single_word": false,
      "lstrip": false,
      "rstrip": false,
      "normalized": false,
      "special": true
    },
    {
      "id": 100550,
      "content": "<image_533>",
      "single_word": false,
      "lstrip": false,
      "rstrip": false,
      "normalized": false,
      "special": true
    },
    {
      "id": 100551,
      "content": "<image_534>",
      "single_word": false,
      "lstrip": false,
      "rstrip": false,
      "normalized": false,
      "special": true
    },
    {
      "id": 100552,
      "content": "<image_535>",
      "single_word": false,
      "lstrip": false,
      "rstrip": false,
      "normalized": false,
      "special": true
    },
    {
      "id": 100553,
      "content": "<image_536>",
      "single_word": false,
      "lstrip": false,
      "rstrip": false,
      "normalized": false,
      "special": true
    },
    {
      "id": 100554,
      "content": "<image_537>",
      "single_word": false,
      "lstrip": false,
      "rstrip": false,
      "normalized": false,
      "special": true
    },
    {
      "id": 100555,
      "content": "<image_538>",
      "single_word": false,
      "lstrip": false,
      "rstrip": false,
      "normalized": false,
      "special": true
    },
    {
      "id": 100556,
      "content": "<image_539>",
      "single_word": false,
      "lstrip": false,
      "rstrip": false,
      "normalized": false,
      "special": true
    },
    {
      "id": 100557,
      "content": "<image_540>",
      "single_word": false,
      "lstrip": false,
      "rstrip": false,
      "normalized": false,
      "special": true
    },
    {
      "id": 100558,
      "content": "<image_541>",
      "single_word": false,
      "lstrip": false,
      "rstrip": false,
      "normalized": false,
      "special": true
    },
    {
      "id": 100559,
      "content": "<image_542>",
      "single_word": false,
      "lstrip": false,
      "rstrip": false,
      "normalized": false,
      "special": true
    },
    {
      "id": 100560,
      "content": "<image_543>",
      "single_word": false,
      "lstrip": false,
      "rstrip": false,
      "normalized": false,
      "special": true
    },
    {
      "id": 100561,
      "content": "<image_544>",
      "single_word": false,
      "lstrip": false,
      "rstrip": false,
      "normalized": false,
      "special": true
    },
    {
      "id": 100562,
      "content": "<image_545>",
      "single_word": false,
      "lstrip": false,
      "rstrip": false,
      "normalized": false,
      "special": true
    },
    {
      "id": 100563,
      "content": "<image_546>",
      "single_word": false,
      "lstrip": false,
      "rstrip": false,
      "normalized": false,
      "special": true
    },
    {
      "id": 100564,
      "content": "<image_547>",
      "single_word": false,
      "lstrip": false,
      "rstrip": false,
      "normalized": false,
      "special": true
    },
    {
      "id": 100565,
      "content": "<image_548>",
      "single_word": false,
      "lstrip": false,
      "rstrip": false,
      "normalized": false,
      "special": true
    },
    {
      "id": 100566,
      "content": "<image_549>",
      "single_word": false,
      "lstrip": false,
      "rstrip": false,
      "normalized": false,
      "special": true
    },
    {
      "id": 100567,
      "content": "<image_550>",
      "single_word": false,
      "lstrip": false,
      "rstrip": false,
      "normalized": false,
      "special": true
    },
    {
      "id": 100568,
      "content": "<image_551>",
      "single_word": false,
      "lstrip": false,
      "rstrip": false,
      "normalized": false,
      "special": true
    },
    {
      "id": 100569,
      "content": "<image_552>",
      "single_word": false,
      "lstrip": false,
      "rstrip": false,
      "normalized": false,
      "special": true
    },
    {
      "id": 100570,
      "content": "<image_553>",
      "single_word": false,
      "lstrip": false,
      "rstrip": false,
      "normalized": false,
      "special": true
    },
    {
      "id": 100571,
      "content": "<image_554>",
      "single_word": false,
      "lstrip": false,
      "rstrip": false,
      "normalized": false,
      "special": true
    },
    {
      "id": 100572,
      "content": "<image_555>",
      "single_word": false,
      "lstrip": false,
      "rstrip": false,
      "normalized": false,
      "special": true
    },
    {
      "id": 100573,
      "content": "<image_556>",
      "single_word": false,
      "lstrip": false,
      "rstrip": false,
      "normalized": false,
      "special": true
    },
    {
      "id": 100574,
      "content": "<image_557>",
      "single_word": false,
      "lstrip": false,
      "rstrip": false,
      "normalized": false,
      "special": true
    },
    {
      "id": 100575,
      "content": "<image_558>",
      "single_word": false,
      "lstrip": false,
      "rstrip": false,
      "normalized": false,
      "special": true
    },
    {
      "id": 100576,
      "content": "<image_559>",
      "single_word": false,
      "lstrip": false,
      "rstrip": false,
      "normalized": false,
      "special": true
    },
    {
      "id": 100577,
      "content": "<image_560>",
      "single_word": false,
      "lstrip": false,
      "rstrip": false,
      "normalized": false,
      "special": true
    },
    {
      "id": 100578,
      "content": "<image_561>",
      "single_word": false,
      "lstrip": false,
      "rstrip": false,
      "normalized": false,
      "special": true
    },
    {
      "id": 100579,
      "content": "<image_562>",
      "single_word": false,
      "lstrip": false,
      "rstrip": false,
      "normalized": false,
      "special": true
    },
    {
      "id": 100580,
      "content": "<image_563>",
      "single_word": false,
      "lstrip": false,
      "rstrip": false,
      "normalized": false,
      "special": true
    },
    {
      "id": 100581,
      "content": "<image_564>",
      "single_word": false,
      "lstrip": false,
      "rstrip": false,
      "normalized": false,
      "special": true
    },
    {
      "id": 100582,
      "content": "<image_565>",
      "single_word": false,
      "lstrip": false,
      "rstrip": false,
      "normalized": false,
      "special": true
    },
    {
      "id": 100583,
      "content": "<image_566>",
      "single_word": false,
      "lstrip": false,
      "rstrip": false,
      "normalized": false,
      "special": true
    },
    {
      "id": 100584,
      "content": "<image_567>",
      "single_word": false,
      "lstrip": false,
      "rstrip": false,
      "normalized": false,
      "special": true
    },
    {
      "id": 100585,
      "content": "<image_568>",
      "single_word": false,
      "lstrip": false,
      "rstrip": false,
      "normalized": false,
      "special": true
    },
    {
      "id": 100586,
      "content": "<image_569>",
      "single_word": false,
      "lstrip": false,
      "rstrip": false,
      "normalized": false,
      "special": true
    },
    {
      "id": 100587,
      "content": "<image_570>",
      "single_word": false,
      "lstrip": false,
      "rstrip": false,
      "normalized": false,
      "special": true
    },
    {
      "id": 100588,
      "content": "<image_571>",
      "single_word": false,
      "lstrip": false,
      "rstrip": false,
      "normalized": false,
      "special": true
    },
    {
      "id": 100589,
      "content": "<image_572>",
      "single_word": false,
      "lstrip": false,
      "rstrip": false,
      "normalized": false,
      "special": true
    },
    {
      "id": 100590,
      "content": "<image_573>",
      "single_word": false,
      "lstrip": false,
      "rstrip": false,
      "normalized": false,
      "special": true
    },
    {
      "id": 100591,
      "content": "<image_574>",
      "single_word": false,
      "lstrip": false,
      "rstrip": false,
      "normalized": false,
      "special": true
    },
    {
      "id": 100592,
      "content": "<image_575>",
      "single_word": false,
      "lstrip": false,
      "rstrip": false,
      "normalized": false,
      "special": true
    },
    {
      "id": 100593,
      "content": "<end_of_image>",
      "single_word": false,
      "lstrip": false,
      "rstrip": false,
      "normalized": false,
      "special": true
    },
    {
      "id": 100594,
      "content": "<image_placeholder>",
      "single_word": false,
      "lstrip": false,
      "rstrip": false,
      "normalized": false,
      "special": true
    },
    {
      "id": 100595,
      "content": "<patch_placeholder>",
      "single_word": false,
      "lstrip": false,
      "rstrip": false,
      "normalized": false,
      "special": true
    },
    {
      "id": 100596,
      "content": "<|ref|>",
      "single_word": false,
      "lstrip": false,
      "rstrip": false,
      "normalized": false,
      "special": true
    },
    {
      "id": 100597,
      "content": "<|/ref|>",
      "single_word": false,
      "lstrip": false,
      "rstrip": false,
      "normalized": false,
      "special": true
    },
    {
      "id": 100598,
      "content": "<|det|>",
      "single_word": false,
      "lstrip": false,
      "rstrip": false,
      "normalized": false,
      "special": true
    },
    {
      "id": 100599,
      "content": "<|/det|>",
      "single_word": false,
      "lstrip": false,
      "rstrip": false,
      "normalized": false,
      "special": true
    },
    {
      "id": 100600,
      "content": "<|grounding|>",
      "single_word": false,
      "lstrip": false,
      "rstrip": false,
      "normalized": false,
      "special": true
    },
    {
      "id": 100601,
      "content": "<|User|>",
      "single_word": false,
      "lstrip": false,
      "rstrip": false,
      "normalized": false,
      "special": true
    },
    {
      "id": 100602,
      "content": "<|Assistant|>",
      "single_word": false,
      "lstrip": false,
      "rstrip": false,
      "normalized": false,
      "special": true
    }
  ],
  "normalizer": {
    "type": "Sequence",
    "normalizers": []
  },
  "pre_tokenizer": {
    "type": "Sequence",
    "pretokenizers": [
      {
        "type": "Split",
        "pattern": {
          "Regex": "[\r\n]"
        },
        "behavior": "Isolated",
        "invert": false
      },
      {
        "type": "Split",
        "pattern": {
          "Regex": "\\s?[A-Za-zµÀ-ÖØ-öø-ƺƼ-ƿǄ-ʓʕ-ʯͰ-ͳͶͷͻ-ͽͿΆΈ-ΊΌΎ-ΡΣ-ϵϷ-ҁҊ-ԯԱ-ՖႠ-ჅᎠ-Ᏽᏸ-ᏽᲐ-ᲺᲽ-Ჿᴀ-ᴫᵫ-ᵷᵹ-ᶚḀ-ἕἘ-Ἕἠ-ὅὈ-Ὅὐ-ὗὙὛὝὟ-ώᾀ-ᾴᾶ-ᾼιῂ-ῄῆ-ῌῐ-ΐῖ-Ίῠ-Ῥῲ-ῴῶ-ῼℂℇℊ-ℓℕℙ-ℝℤΩℨK-ℭℯ-ℴℹℼ-ℿⅅ-ⅉⅎↃↄⰀ-ⱻⱾ-ⳤⳫ-ⳮⳲⳳꙀ-ꙭꚀ-ꚛꜢ-ꝯꝱ-ꞇꞋ-ꞎꭰ-ꮿﬀ-ﬆﬓ-ﬗＡ-Ｚａ-ｚ𐐀-𐑏𐒰-𐓓𐓘-𐓻𐲀-𐲲𐳀-𐳲𑢠-𑣟𞤀-𞥃]+"
        },
        "behavior": "Isolated",
        "invert": false
      },
      {
        "type": "Split",
        "pattern": {
          "Regex": "\\s?[!-/:-~！-／：-～‘-‟　-。]+"
        },
        "behavior": "Isolated",
        "invert": false
      },
      {
        "type": "Split",
        "pattern": {
          "Regex": "\\s+$"
        },
        "behavior": "Isolated",
        "invert": false
      },
      {
        "type": "Split",
        "pattern": {
          "Regex": "[一-龥ࠀ-一가-퟿]+"
        },
        "behavior": "Isolated",
        "invert": false
      },
      {
        "type": "Digits",
        "individual_digits": true
      },
      {
        "type": "ByteLevel",
        "add_prefix_space": false,
        "trim_offsets": true,
        "use_regex": false
      }
    ]
  },
  "post_processor": {
    "type": "TemplateProcessing",
    "single": [
      {
        "SpecialToken": {
          "id": "<｜begin▁of▁sentence｜>",
          "type_id": 0
        }
      },
      {
        "Sequence": {
          "id": "A",
          "type_id": 0
        }
      }
    ],
    "pair": [
      {
        "SpecialToken": {
          "id": "<｜begin▁of▁sentence｜>",
          "type_id": 0
        }
      },
      {
        "Sequence": {
          "id": "A",
          "type_id": 0
        }
      },
      {
        "SpecialToken": {
          "id": "<｜begin▁of▁sentence｜>",
          "type_id": 1
        }
      },
      {
        "Sequence": {
          "id": "B",
          "type_id": 1
        }
      }
    ],
    "special_tokens": {
      "<｜begin▁of▁sentence｜>": {
        "id": "<｜begin▁of▁sentence｜>",
        "ids": [
          100000
        ],
        "tokens": [
          "<｜begin▁of▁sentence｜>"
        ]
      }
    }
  },
  "decoder": {
    "type": "ByteLevel",
    "add_prefix_space": true,
    "trim_offsets": true,
    "use_regex": true
  },
  "model": {
    "type": "BPE",
    "dropout": null,
    "unk_token": null,
    "continuing_subword_prefix": null,
    "end_of_word_suffix": null,
    "fuse_unk": false,
    "byte_fallback": false,
    "vocab": {
      "!": 0,
      "\"": 1,
      "#": 2,
      "$": 3,
      "%": 4,
      "&": 5,
      "'": 6,
      "(": 7,
      ")": 8,
      "*": 9,
      "+": 10,
      ",": 11,
      "-": 12,
      ".": 13,
      "/": 14,
      "0": 15,
      "1": 16,
      "2": 17,
      "3": 18,
      "4": 19,
      "5": 20,
      "6": 21,
      "7": 22,
      "8": 23,
      "9": 24,
      ":": 25,
      ";": 26,
      "<": 27,
      "=": 28,
      ">": 29,
      "?": 30,
      "@": 31,
      "A": 32,
      "B": 33,
      "C": 34,
      "D": 35,
      "E": 36,
      "F": 37,
      "G": 38,
      "H": 39,
      "I": 40,
      "J": 41,
      "K": 42,
      "L": 43,
      "M": 44,
      "N": 45,
      "O": 46,
      "P": 47,
      "Q": 48,
      "R": 49,
      "S": 50,
      "T": 51,
      "U": 52,
      "V": 53,
      "W": 54,
      "X": 55,
      "Y": 56,
      "Z": 57,
      "[": 58,
      "\\": 59,
      "]": 60,
      "^": 61,
      "_": 62,
      "`": 63,
      "a": 64,
      "b": 65,
      "c": 66,
      "d": 67,
      "e": 68,
      "f": 69,
      "g": 70,
      "h": 71,
      "i": 72,
      "j": 73,
      "k": 74,
      "l": 75,
      "m": 76,
      "n": 77,
      "o": 78,
      "p": 79,
      "q": 80,
      "r": 81,
      "s": 82,
      "t": 83,
      "u": 84,
      "v": 85,
      "w": 86,
      "x": 87,
      "y": 88,
      "z": 89,
      "{": 90,
      "|": 91,
      "}": 92,
      "~": 93,
      "¡": 94,
      "¢": 95,
      "£": 96,
      "¤": 97,
      "¥": 98,
      "¦": 99,
      "§": 100,
      "¨": 101,
      "©": 102,
      "ª": 103,
      "«": 104,
      "¬": 105,
      "®": 106,
      "¯": 107,
      "°": 108,
      "±": 109,
      "²": 110,
      "³": 111,
      "´": 112,
      "µ": 113,
      "¶": 114,
      "·": 115,
      "¸": 116,
      "¹": 117,
      "º": 118,
      "»": 119,
      "¼": 120,
      "½": 121,
      "¾": 122,
      "¿": 123,
      "Â": 124,
      "Ã": 125,
      "Ä": 126,
      "Å": 127,
      "Æ": 128,
      "Ç": 129,
      "È": 130,
      "É": 131,
      "Ê": 132,
      "Ë": 133,
      "Ì": 134,
      "Í": 135,
      "Î": 136,
      "Ï": 137,
      "Ð": 138,
      "Ñ": 139,
      "Ò": 140,
      "Ó": 141,
      "Ô": 142,
      "Õ": 143,
      "Ö": 144,
      "×": 145,
      "Ø": 146,
      "Ù": 147,
      "Ú": 148,
      "Û": 149,
      "Ü": 150,
      "Ý": 151,
      "Þ": 152,
      "ß": 153,
      "à": 154,
      "á": 155,
      "â": 156,
      "ã": 157,
      "ä": 158,
      "å": 159,
      "æ": 160,
      "ç": 161,
      "è": 162,
      "é": 163,
      "ê": 164,
      "ë": 165,
      "ì": 166,
      "í": 167,
      "î": 168,
      "ï": 169,
      "ð": 170,
      "ñ": 171,
      "ò": 172,
      "ó": 173,
      "ô": 174,
      "Ā": 175,
      "ā": 176,
      "Ă": 177,
      "ă": 178,
      "Ą": 179,
      "ą": 180,
      "Ć": 181,
      "ć": 182,
      "Ĉ": 183,
      "ĉ": 184,
      "Ċ": 185,
      "ċ": 186,
      "Č": 187,
      "č": 188,
      "Ď": 189,
      "ď": 190,
      "Đ": 191,
      "đ": 192,
      "Ē": 193,
      "ē": 194,
      "Ĕ": 195,
      "ĕ": 196,
      "Ė": 197,
      "ė": 198,
      "Ę": 199,
      "ę": 200,
      "Ě": 201,
      "ě": 202,
      "Ĝ": 203,
      "ĝ": 204,
      "Ğ": 205,
      "ğ": 206,
      "Ġ": 207,
      "ġ": 208,
      "Ģ": 209,
      "ģ": 210,
      "Ĥ": 211,
      "ĥ": 212,
      "Ħ": 213,
      "ħ": 214,
      "Ĩ": 215,
      "ĩ": 216,
      "Ī": 217,
      "ī": 218,
      "Ĭ": 219,
      "ĭ": 220,
      "Į": 221,
      "į": 222,
      "İ": 223,
      "ı": 224,
      "Ĳ": 225,
      "ĳ": 226,
      "Ĵ": 227,
      "ĵ": 228,
      "Ķ": 229,
      "ķ": 230,
      "ĸ": 231,
      "Ĺ": 232,
      "ĺ": 233,
      "Ļ": 234,
      "ļ": 235,
      "Ľ": 236,
      "ľ": 237,
      "Ŀ": 238,
      "ŀ": 239,
      "Ł": 240,
      "ł": 241,
      "Ń": 242,
      "ĠĠ": 243,
      "Ġt": 244,
      "Ġa": 245,
      "in": 246,
      "he": 247,
      "re": 248,
      "on": 249,
      "er": 250,
      "ĠĠĠĠ": 251,
      "Ġs": 252,
      "at": 253,
      "Ġthe": 254,
      "en": 255,
      "or": 256,
      "es": 257,
      "Ġc": 258,
      "Ġw": 259,
      "it": 260,
      "an": 261,
      "is": 262,
      "Ġd": 263,
      "ou": 264,
      "Ġp": 265,
      "al": 266,
      "Ġf": 267,
      "ar": 268,
      "Ġo": 269,
      "Ġb": 270,
      "ed": 271,
      "ing": 272,
      "Ġm": 273,
      "Ġan": 274,
      "le": 275,
      "Ġto": 276,
      "ion": 277,
      "ic": 278,
      "Ġin": 279,
      "Ġof": 280,
      "as": 281,
      "el": 282,
      "om": 283,
      "Ġl": 284,
      "Ġand": 285,
      "Ġh": 286,
      "ĠÐ": 287,
      "Ġth": 288,
      "ent": 289,
      "et": 290,
      "Ġn": 291,
      "st": 292,
      "Ð°": 293,
      "ro": 294,
      "ct": 295,
      "il": 296,
      "ä¸": 297,
      "Ġre": 298,
      "ĠĠĠĠĠĠĠĠ": 299,
      "ĠĠĠ": 300,
      "Ġe": 301,
      "ot": 302,
      "am": 303,
      "ĠI": 304,
      "id": 305,
      "ac": 306,
      "Ġg": 307,
      "ad": 308,
      "im": 309,
      "un": 310,
      "Ð¸": 311,
      "ig": 312,
      "ve": 313,
      "ol": 314,
      "Ġde": 315,
      "ut": 316,
      "Ġis": 317,
      "Ðµ": 318,
      "us": 319,
      "Ġy": 320,
      "Ð¾": 321,
      "ow": 322,
      "ĠT": 323,
      "ĠS": 324,
      "ÑĤ": 325,
      "ly": 326,
      "Ġfor": 327,
      "qu": 328,
      "ver": 329,
      "Ġbe": 330,
      "Ġon": 331,
      "ur": 332,
      "ay": 333,
      "Ġ(": 334,
      "ation": 335,
      "çļ": 336,
      "çļĦ": 337,
      "ĠA": 338,
      "ĠC": 339,
      "Ġyou": 340,
      "ul": 341,
      "ÑĢ": 342,
      "ãĢ": 343,
      "Ġthat": 344,
      "Ð½": 345,
      "se": 346,
      "ce": 347,
      "ir": 348,
      "ith": 349,
      "âĢ": 350,
      "if": 351,
      "Ġst": 352,
      "Ġv": 353,
      "äº": 354,
      "od": 355,
      "ab": 356,
      "Ġ\\": 357,
      "ch": 358,
      "Ġit": 359,
      "Ġal": 360,
      "ag": 361,
      "Ġhe": 362,
      "Ġ$": 363,
      "ĠM": 364,
      "Ġcon": 365,
      "Ġwith": 366,
      "ter": 367,
      "Ñģ": 368,
      "ri": 369,
      "em": 370,
      "est": 371,
      "Ġas": 372,
      "ap": 373,
      "--": 374,
      "ĠP": 375,
      "Ġwh": 376,
      "um": 377,
      "os": 378,
      "res": 379,
      "ĠB": 380,
      "Ġpro": 381,
      "ist": 382,
      "ht": 383,
      "and": 384,
      "Ġcom": 385,
      "Ġse": 386,
      "ate": 387,
      "pe": 388,
      "ill": 389,
      "ess": 390,
      "ĠĠĠĠĠĠĠ": 391,
      "æľ": 392,
      "th": 393,
      "up": 394,
      "Ġwe": 395,
      "åı": 396,
      "her": 397,
      "ãĢĤ": 398,
      "ä»": 399,
      "ke": 400,
      "ant": 401,
      "ra": 402,
      "Ġ=": 403,
      "ld": 404,
      "Ġun": 405,
      "oc": 406,
      "out": 407,
      "ers": 408,
      "end": 409,
      "Ġor": 410,
      "Ġex": 411,
      "Ð»": 412,
      "ĠL": 413,
      "ĠD": 414,
      "ĠH": 415,
      "our": 416,
      "ĠF": 417,
      "Ġare": 418,
      "å¤": 419,
      "ore": 420,
      "rom": 421,
      "Ġha": 422,
      "ĠW": 423,
      "Ð²": 424,
      "op": 425,
      "nd": 426,
      "ĠE": 427,
      "Ġr": 428,
      "ĠThe": 429,
      "Ġat": 430,
      "iv": 431,
      "art": 432,
      "ĠR": 433,
      "åħ": 434,
      "nt": 435,
      "all": 436,
      "Ġthis": 437,
      "Ġwas": 438,
      "ort": 439,
      "Ġ\"": 440,
      "Ġnot": 441,
      "Ġne": 442,
      "è¿": 443,
      "ain": 444,
      "Ġqu": 445,
      "Ġla": 446,
      "ight": 447,
      "æĺ": 448,
      "pl": 449,
      "Ġus": 450,
      "ction": 451,
      "ĠG": 452,
      "ure": 453,
      "te": 454,
      "å®": 455,
      "Ġen": 456,
      "Ġby": 457,
      "ub": 458,
      "Ġ<": 459,
      "Ġi": 460,
      "ĠN": 461,
      "pt": 462,
      "Ġhave": 463,
      "Ðº": 464,
      "ity": 465,
      "Ġel": 466,
      "Ġsh": 467,
      "ass": 468,
      "ment": 469,
      "åĪ": 470,
      "ame": 471,
      "ould": 472,
      "Ġfrom": 473,
      "ä½": 474,
      "ies": 475,
      ");": 476,
      "åľ": 477,
      "{\\": 478,
      "ine": 479,
      "ia": 480,
      "Ġcan": 481,
      "åĲ": 482,
      "ust": 483,
      "ud": 484,
      "=\"": 485,
      "ĉĉ": 486,
      "âĢĻ": 487,
      "ell": 488,
      "ive": 489,
      "Ð´": 490,
      "age": 491,
      "ĠĠĠĠĠĠĠĠĠĠĠĠĠĠĠĠ": 492,
      "ge": 493,
      "ard": 494,
      "og": 495,
      "Ġch": 496,
      "Ġcl": 497,
      "ome": 498,
      "ial": 499,
      "ect": 500,
      "ue": 501,
      "ack": 502,
      "ä¹": 503,
      "æĺ¯": 504,
      "ä¸Ģ": 505,
      "red": 506,
      "ost": 507,
      "ĠO": 508,
      "Ġ{": 509,
      "able": 510,
      "ath": 511,
      "æĪ": 512,
      "Ġper": 513,
      "ich": 514,
      "ind": 515,
      "çĶ": 516,
      "ip": 517,
      "Ġle": 518,
      "å°": 519,
      "Ġyour": 520,
      "Ġall": 521,
      "ie": 522,
      "Ġj": 523,
      "per": 524,
      "Ġme": 525,
      "..": 526,
      "åĬ": 527,
      "Ġtr": 528,
      "av": 529,
      "Ġk": 530,
      "iz": 531,
      "xt": 532,
      "ans": 533,
      "ult": 534,
      "</": 535,
      "Ġdo": 536,
      "ãĢģ": 537,
      "cl": 538,
      "ff": 539,
      "ast": 540,
      "rou": 541,
      "ç»": 542,
      "Ġwill": 543,
      "ok": 544,
      "Ġwhe": 545,
      "ide": 546,
      "Ġab": 547,
      "Ġbut": 548,
      "The": 549,
      "ite": 550,
      "Ġwor": 551,
      "æĹ": 552,
      "Ã³": 553,
      "ib": 554,
      "ĠÐ½": 555,
      "//": 556,
      "are": 557,
      "Ġso": 558,
      "ak": 559,
      "port": 560,
      "orm": 561,
      "ions": 562,
      "ĠÑģ": 563,
      "Ñı": 564,
      "Ġif": 565,
      "_{": 566,
      "con": 567,
      "ĠJ": 568,
      "cc": 569,
      "Ġ-": 570,
      "Ġpl": 571,
      "int": 572,
      "ä¸į": 573,
      "åĽ": 574,
      "Ġ*": 575,
      "Ġ&": 576,
      "ĠU": 577,
      "ice": 578,
      "Ð¼": 579,
      "to": 580,
      "Ġup": 581,
      "Ġdel": 582,
      "der": 583,
      "de": 584,
      "ace": 585,
      "Ġhis": 586,
      "Ã©": 587,
      "Ġwhich": 588,
      "è¯": 589,
      "ase": 590,
      "Ġcomp": 591,
      "ÑĬ": 592,
      "ime": 593,
      "one": 594,
      "ĠĠĠĠĠĠĠĠĠĠĠ": 595,
      "ong": 596,
      "Ġres": 597,
      "ally": 598,
      "æĸ": 599,
      "ä¼": 600,
      "Ġmy": 601,
      "Ġad": 602,
      "Ñĥ": 603,
      "Ð½Ð¸": 604,
      "ile": 605,
      "å¹": 606,
      "ther": 607,
      "Ġam": 608,
      "æľī": 609,
      "æĿ": 610,
      "Ð·": 611,
      "åľ¨": 612,
      "eg": 613,
      "Ġgo": 614,
      "Ġ}": 615,
      "ated": 616,
      "äºĨ": 617,
      "åŃ": 618,
      "ĠÐ¿": 619,
      "ĠÐ½Ð°": 620,
      "ign": 621,
      "act": 622,
      "Ġim": 623,
      "åį": 624,
      "ous": 625,
      "----": 626,
      "ÑĢÐ°": 627,
      "Ġ$\\": 628,
      "urn": 629,
      "äºº": 630,
      "Ġap": 631,
      "ĠV": 632,
      ").": 633,
      "Ġone": 634,
      "Ġcont": 635,
      "Ġout": 636,
      "ref": 637,
      "gh": 638,
      "ne": 639,
      "è®": 640,
      "ire": 641,
      "Ġno": 642,
      "Ġhas": 643,
      "very": 644,
      "Ġlo": 645,
      "Ġque": 646,
      "ll": 647,
      "æī": 648,
      "ance": 649,
      "ÑĤÐ¾": 650,
      "ake": 651,
      "tr": 652,
      "ÑĤÐ°": 653,
      "),": 654,
      "Ġ'": 655,
      "ÃŃ": 656,
      "Ġthey": 657,
      "ep": 658,
      "ob": 659,
      "ens": 660,
      "Ġhad": 661,
      "ft": 662,
      "ĠĠĠĠĠ": 663,
      "math": 664,
      "å¸": 665,
      "ary": 666,
      "å¾": 667,
      "Ġman": 668,
      "ere": 669,
      "Ġar": 670,
      "pro": 671,
      "the": 672,
      "ang": 673,
      "ry": 674,
      "so": 675,
      "Ãł": 676,
      "ĠTh": 677,
      "du": 678,
      "Ġsu": 679,
      "ail": 680,
      "å·": 681,
      "éĩ": 682,
      "ach": 683,
      "\">": 684,
      "ĠIn": 685,
      "ix": 686,
      "èĢ": 687,
      "Ġany": 688,
      "ĥ½": 689,
      "com": 690,
      "Ġmore": 691,
      "ose": 692,
      "form": 693,
      "ord": 694,
      "ph": 695,
      "Ġdis": 696,
      "Ġpart": 697,
      "å¼": 698,
      "Ġser": 699,
      "ition": 700,
      "ber": 701,
      "åĩ": 702,
      "ress": 703,
      "Ġtheir": 704,
      "Ġdes": 705,
      "ĠÐ¸": 706,
      "ear": 707,
      "get": 708,
      "own": 709,
      "ks": 710,
      "Ġher": 711,
      "Ġes": 712,
      "ents": 713,
      "ĠÐ²": 714,
      "ors": 715,
      "Ð³": 716,
      "å¥": 717,
      "Ġli": 718,
      "ple": 719,
      "ations": 720,
      "ĠK": 721,
      "ount": 722,
      "åĨ": 723,
      "Ã¨": 724,
      "ence": 725,
      "Ð¿": 726,
      "ÑĤÐµ": 727,
      "Ð½Ð°": 728,
      "ound": 729,
      "row": 730,
      "Ñĩ": 731,
      "Ð²Ð°": 732,
      "ely": 733,
      "ru": 734,
      "Ġsp": 735,
      "ma": 736,
      "Ġsa": 737,
      "ode": 738,
      "ical": 739,
      "}\\": 740,
      "è¡": 741,
      "Ġsome": 742,
      "åº": 743,
      "Ġwould": 744,
      "Ġthere": 745,
      "**": 746,
      "éĢ": 747,
      "å¤§": 748,
      "Ġfe": 749,
      "Ġother": 750,
      "ata": 751,
      "Ġget": 752,
      "å¯": 753,
      "Ġwhen": 754,
      "ÑĢÐµ": 755,
      "Ġsc": 756,
      "ject": 757,
      "ree": 758,
      "}$": 759,
      "Ġev": 760,
      "Ġnew": 761,
      "Ġclass": 762,
      "vers": 763,
      "ä¸Ń": 764,
      "ĠÐ¾": 765,
      "Ġtime": 766,
      "ÑĢÐ¸": 767,
      "Ġthem": 768,
      "Ġour": 769,
      "ĠY": 770,
      "çĽ": 771,
      "ick": 772,
      "ype": 773,
      "In": 774,
      "ert": 775,
      "low": 776,
      "ä¸º": 777,
      "Ġwere": 778,
      "Ġwho": 779,
      "åĮ": 780,
      "^{": 781,
      "sp": 782,
      "èµ": 783,
      "reat": 784,
      "elf": 785,
      "Ġabout": 786,
      "è¿Ļ": 787,
      "==": 788,
      "lo": 789,
      "âĢľ": 790,
      "ings": 791,
      "turn": 792,
      "Ġpr": 793,
      "ex": 794,
      "Ð±": 795,
      "ink": 796,
      "ays": 797,
      "ä¸ª": 798,
      "ory": 799,
      "è§": 800,
      "ener": 801,
      "Ġ|": 802,
      "Ġbeen": 803,
      "Ġte": 804,
      "Ġag": 805,
      "æĬ": 806,
      "li": 807,
      "è´": 808,
      "ĠIt": 809,
      "nc": 810,
      "lic": 811,
      "æķ": 812,
      "Ġro": 813,
      "ck": 814,
      "ef": 815,
      "ä¸Ĭ": 816,
      "ari": 817,
      "çİ": 818,
      "å¿": 819,
      "ta": 820,
      "Ġva": 821,
      "text": 822,
      "æł": 823,
      "Ġob": 824,
      "Ġ[": 825,
      "()": 826,
      "aus": 827,
      "æĢ": 828,
      "Ġfun": 829,
      "Ġwork": 830,
      "Ġkn": 831,
      "we": 832,
      "ps": 833,
      "ual": 834,
      "åĴ": 835,
      "ÑģÑĤ": 836,
      "Ġlike": 837,
      "Ġshe": 838,
      "Ġalso": 839,
      "Ġpre": 840,
      "èĩ": 841,
      "Ġoff": 842,
      "old": 843,
      "ish": 844,
      "Ġset": 845,
      "Ġbo": 846,
      "rib": 847,
      "wo": 848,
      "vel": 849,
      "æĹ¶": 850,
      "ä»¥": 851,
      "æĪĳ": 852,
      "Ġthan": 853,
      "Ġinst": 854,
      "Ġover": 855,
      "Ġwhat": 856,
      "Ġhim": 857,
      "ild": 858,
      "Ġest": 859,
      "ark": 860,
      "irst": 861,
      "eth": 862,
      "anc": 863,
      "ont": 864,
      "fr": 865,
      "itt": 866,
      "iff": 867,
      "ç§": 868,
      "ec": 869,
      "sc": 870,
      "ock": 871,
      "¦ģ": 872,
      "åİ": 873,
      "hed": 874,
      "}}": 875,
      "Ġspe": 876,
      "ov": 877,
      "les": 878,
      "ons": 879,
      "gr": 880,
      "Ġinto": 881,
      "Ġval": 882,
      ".\"": 883,
      "å±": 884,
      "åĴĮ": 885,
      "ys": 886,
      "tern": 887,
      "æŃ": 888,
      "Ġonly": 889,
      "ÑĨ": 890,
      "âĢĵ": 891,
      "è¦ģ": 892,
      "Ġ/": 893,
      "erm": 894,
      "Ġits": 895,
      "éĿ": 896,
      "ull": 897,
      "æ°": 898,
      "Ġsup": 899,
      "ĠSt": 900,
      "enc": 901,
      "ĠÐº": 902,
      "ĠĠĠĠĠĠĠĠĠĠĠĠĠĠĠ": 903,
      "ove": 904,
      "éĹ": 905,
      "çī": 906,
      "(\\": 907,
      "ĠCh": 908,
      "Ġacc": 909,
      "ug": 910,
      "ific": 911,
      "Ġcol": 912,
      "æĿ¥": 913,
      "als": 914,
      "Ð½Ð¾": 915,
      "lect": 916,
      "Ġgr": 917,
      "yst": 918,
      "Ġ+": 919,
      "å½": 920,
      "put": 921,
      "æĶ": 922,
      "åĪ°": 923,
      "çľ": 924,
      "fter": 925,
      "ss": 926,
      "ade": 927,
      "çº": 928,
      "ä¼ļ": 929,
      "çĶŁ": 930,
      "æ²": 931,
      "egin": 932,
      "Ġneed": 933,
      "å¹´": 934,
      "aci": 935,
      "Ġcomm": 936,
      "Ġthen": 937,
      "Ġuse": 938,
      "åĳ": 939,
      "éĻ": 940,
      "å°±": 941,
      "Ð»Ð¸": 942,
      "hat": 943,
      "pos": 944,
      "ize": 945,
      "Ġhow": 946,
      "èĥ½": 947,
      "ï¼": 948,
      "ĠÐ´": 949,
      "ng": 950,
      "begin": 951,
      "æĥ": 952,
      "Ġjust": 953,
      "Ð¹": 954,
      "\",": 955,
      "è½": 956,
      "bo": 957,
      "any": 958,
      "erv": 959,
      "Ġmod": 960,
      "ÑģÐº": 961,
      "Ġadd": 962,
      "app": 963,
      "ics": 964,
      "iew": 965,
      "ble": 966,
      "oint": 967,
      "ystem": 968,
      "æ³": 969,
      "ict": 970,
      "æ¯": 971,
      "Ġreturn": 972,
      "fig": 973,
      "equ": 974,
      "Ġmay": 975,
      "âĢĿ": 976,
      "Ġdef": 977,
      "Ġbet": 978,
      "iss": 979,
      "Ġco": 980,
      "pect": 981,
      "err": 982,
      "Ã²": 983,
      "Ġtwo": 984,
      "ates": 985,
      "ning": 986,
      "Ġcons": 987,
      "ater": 988,
      "Ġpos": 989,
      "Ġent": 990,
      "Ġrec": 991,
      "åĽ½": 992,
      "Ġsaid": 993,
      "of": 994,
      "clud": 995,
      "Ġem": 996,
      "ian": 997,
      "Ġbl": 998,
      "ublic": 999,
      "ty": 1000,
      "ular": 1001,
      "ĠThis": 1002,
      "ĠWe": 1003,
      "cess": 1004,
      "åı¯": 1005,
      "Ġknow": 1006,
      "ough": 1007,
      "Ġpe": 1008,
      "ER": 1009,
      "pr": 1010,
      "ise": 1011,
      "Ġyear": 1012,
      "Ġdiff": 1013,
      "ption": 1014,
      "Ġass": 1015,
      "ient": 1016,
      "igh": 1017,
      "unt": 1018,
      "Ġsee": 1019,
      "Ġform": 1020,
      "Ġ.": 1021,
      "Ġfirst": 1022,
      "Ġshould": 1023,
      "ä¹Ł": 1024,
      "Ġfin": 1025,
      ")$": 1026,
      "Ġcould": 1027,
      "ÐµÐ½": 1028,
      "åĩº": 1029,
      "_{\\": 1030,
      "line": 1031,
      "ĠÐµ": 1032,
      "ause": 1033,
      "oth": 1034,
      "right": 1035,
      "round": 1036,
      "Ġop": 1037,
      "æŀ": 1038,
      "abel": 1039,
      "sh": 1040,
      "Ġles": 1041,
      "--------": 1042,
      "ats": 1043,
      "æİ": 1044,
      "Ġreg": 1045,
      "its": 1046,
      "Ġact": 1047,
      "Ġuna": 1048,
      "iel": 1049,
      "cal": 1050,
      "ible": 1051,
      "ied": 1052,
      "ĠÐ³": 1053,
      "Ġbec": 1054,
      "ange": 1055,
      "ä¿": 1056,
      "ÑĢÐ¾": 1057,
      "amb": 1058,
      "å¤ļ": 1059,
      "par": 1060,
      "}{": 1061,
      "Ġback": 1062,
      "ĠHe": 1063,
      "ada": 1064,
      "Ġamb": 1065,
      "Ġwhere": 1066,
      "wn": 1067,
      "Ġlook": 1068,
      "Ġthese": 1069,
      "åıĳ": 1070,
      "Ġ//": 1071,
      "Ġ_": 1072,
      "å¯¹": 1073,
      "Ġfol": 1074,
      "å¦": 1075,
      "uch": 1076,
      "ä»¬": 1077,
      "},": 1078,
      "Ġvery": 1079,
      "ource": 1080,
      "Th": 1081,
      "çĶ¨": 1082,
      "Ġke": 1083,
      ",\"": 1084,
      "Ġrel": 1085,
      "ful": 1086,
      "å®¶": 1087,
      "ring": 1088,
      "ond": 1089,
      "Ġunder": 1090,
      "Ð¶": 1091,
      "Ġrem": 1092,
      "Ġprov": 1093,
      "Ġmost": 1094,
      "è¾": 1095,
      "æĭ": 1096,
      "Ġsub": 1097,
      "Ġint": 1098,
      "Ġmake": 1099,
      "ax": 1100,
      "æĦ": 1101,
      "åĲİ": 1102,
      "æµ": 1103,
      "hen": 1104,
      "rough": 1105,
      "cre": 1106,
      "div": 1107,
      "Ġsuch": 1108,
      "ield": 1109,
      "èĩª": 1110,
      "set": 1111,
      "Ġpar": 1112,
      "Ġdon": 1113,
      "æĪĲ": 1114,
      "Ġsim": 1115,
      "io": 1116,
      "Ġph": 1117,
      "ood": 1118,
      "Ġ</": 1119,
      "->": 1120,
      "Ġwant": 1121,
      "frac": 1122,
      "ious": 1123,
      "é¢": 1124,
      "åĵ": 1125,
      "èĤ": 1126,
      "è¡Į": 1127,
      "Ġcur": 1128,
      "ĠÐ¾ÑĤ": 1129,
      "ating": 1130,
      "Ġevery": 1131,
      "Ġnow": 1132,
      "çŃ": 1133,
      "Ġcor": 1134,
      "Ġconst": 1135,
      "Ġwell": 1136,
      "æ¬": 1137,
      "åī": 1138,
      "riv": 1139,
      "imes": 1140,
      "arg": 1141,
      "ĠÐ·": 1142,
      "Ġway": 1143,
      "rit": 1144,
      "oy": 1145,
      "rm": 1146,
      "ä»ĸ": 1147,
      "ave": 1148,
      "ä½ľ": 1149,
      "ä¸ļ": 1150,
      "erson": 1151,
      "Ġtrans": 1152,
      "ople": 1153,
      "ues": 1154,
      "ä¸ĭ": 1155,
      "IN": 1156,
      "Ġfunction": 1157,
      "other": 1158,
      "åŃ¦": 1159,
      "çĲ": 1160,
      "Ġsm": 1161,
      "let": 1162,
      "::": 1163,
      "Ġgener": 1164,
      "ren": 1165,
      "Ġafter": 1166,
      "Ġbu": 1167,
      "ures": 1168,
      "æĮ": 1169,
      "ica": 1170,
      "resent": 1171,
      "äºİ": 1172,
      "Ġ@": 1173,
      "Ð¸Ñı": 1174,
      "ower": 1175,
      "éĺ": 1176,
      "ork": 1177,
      "Ġatt": 1178,
      "ution": 1179,
      "ments": 1180,
      "Ġfollow": 1181,
      "self": 1182,
      "Ġnum": 1183,
      "Ġthrough": 1184,
      "',": 1185,
      "åľ°": 1186,
      "eq": 1187,
      "è¿ĩ": 1188,
      "read": 1189,
      "cite": 1190,
      "Ġdata": 1191,
      "Ġdiffere": 1192,
      "Ġ:": 1193,
      "rent": 1194,
      "Ġinter": 1195,
      "ĠÐ¿Ð¾": 1196,
      "Ġsol": 1197,
      "(\"": 1198,
      "ĠÐ¼": 1199,
      "ĠUn": 1200,
      "Ġhel": 1201,
      "Âł": 1202,
      "St": 1203,
      "...": 1204,
      "åŃĲ": 1205,
      "Ġprodu": 1206,
      "Ġgood": 1207,
      "label": 1208,
      "ward": 1209,
      "Ġname": 1210,
      "åģ": 1211,
      "ÑĦ": 1212,
      "ĉĉĉĉ": 1213,
      "ily": 1214,
      "led": 1215,
      "Ġdid": 1216,
      "Ġdoes": 1217,
      "hes": 1218,
      "ract": 1219,
      "quest": 1220,
      "ices": 1221,
      "Ġused": 1222,
      "éĥ½": 1223,
      "Ġdown": 1224,
      "Ġend": 1225,
      "air": 1226,
      "eng": 1227,
      "Ġgreat": 1228,
      "ray": 1229,
      "Ġresult": 1230,
      "ev": 1231,
      "plic": 1232,
      "ins": 1233,
      "Ġlong": 1234,
      "ĠÐ·Ð°": 1235,
      "Ġeven": 1236,
      "atch": 1237,
      "ON": 1238,
      "mathb": 1239,
      "uc": 1240,
      "ife": 1241,
      "ility": 1242,
      "Ġgu": 1243,
      "Ġusing": 1244,
      "Ġpeople": 1245,
      "Ġsame": 1246,
      "Ġels": 1247,
      "åĬ¨": 1248,
      "éģ": 1249,
      "å¥½": 1250,
      "ative": 1251,
      "eta": 1252,
      "fore": 1253,
      "rap": 1254,
      "ting": 1255,
      "ym": 1256,
      "ĠYou": 1257,
      "çİ°": 1258,
      "ident": 1259,
      "ash": 1260,
      "Ġdet": 1261,
      "ool": 1262,
      "æĸ¹": 1263,
      "Ġac": 1264,
      "not": 1265,
      "Ġmuch": 1266,
      "Ġcre": 1267,
      "nce": 1268,
      "ts": 1269,
      "ator": 1270,
      "Ð»Ðµ": 1271,
      "Ġpublic": 1272,
      "ĠIf": 1273,
      "Ġread": 1274,
      "Ġfind": 1275,
      "ars": 1276,
      "Ġserv": 1277,
      "Ġfl": 1278,
      "Ġcap": 1279,
      "arch": 1280,
      "ament": 1281,
      "Ġcall": 1282,
      "Ð²Ðµ": 1283,
      "æ¸": 1284,
      "Ġhere": 1285,
      "val": 1286,
      "çĤ": 1287,
      "ÐºÐ°": 1288,
      "åĪĨ": 1289,
      "ities": 1290,
      "els": 1291,
      "amp": 1292,
      "æ±": 1293,
      "ern": 1294,
      "();": 1295,
      "Ġshow": 1296,
      "Ġhand": 1297,
      "ages": 1298,
      "æ´": 1299,
      "irect": 1300,
      "over": 1301,
      "Ġspec": 1302,
      "Ð»Ð°": 1303,
      "Ġdist": 1304,
      "ince": 1305,
      "èĢĮ": 1306,
      "ew": 1307,
      "ĠAnd": 1308,
      "ÑĤÐ¸": 1309,
      "Ġagain": 1310,
      "Ġext": 1311,
      "å°ı": 1312,
      "Ġmany": 1313,
      "bre": 1314,
      "ml": 1315,
      "col": 1316,
      "Ġsystem": 1317,
      "../": 1318,
      "Ġeach": 1319,
      "é«": 1320,
      "ght": 1321,
      "mer": 1322,
      "Ġbefore": 1323,
      "ç»ı": 1324,
      "Ñī": 1325,
      "Ġloc": 1326,
      "Ġref": 1327,
      "ĠĠĠĠĠĠĠĠĠ": 1328,
      "Ġright": 1329,
      "Ġstart": 1330,
      "é«ĺ": 1331,
      "$.": 1332,
      "era": 1333,
      "ased": 1334,
      "ç«": 1335,
      "å¾Ĺ": 1336,
      "Ã§": 1337,
      "Ġcar": 1338,
      "essage": 1339,
      "Ġinv": 1340,
      "ner": 1341,
      "be": 1342,
      "ined": 1343,
      "Ð´Ð¸": 1344,
      "Ġhelp": 1345,
      "å¿ĥ": 1346,
      "ript": 1347,
      "$,": 1348,
      "Ġmin": 1349,
      "åŁ": 1350,
      "è·": 1351,
      "æĽ": 1352,
      "Ġline": 1353,
      "left": 1354,
      "éķ": 1355,
      "day": 1356,
      "Ġeff": 1357,
      "ever": 1358,
      "éĿ¢": 1359,
      "Ġtra": 1360,
      "da": 1361,
      "ä¾": 1362,
      "ä¹ĭ": 1363,
      "ĠÑģÐµ": 1364,
      "ween": 1365,
      "Ñħ": 1366,
      "ather": 1367,
      "Ġbel": 1368,
      "ier": 1369,
      "è¯´": 1370,
      "ĠCom": 1371,
      "ä½ł": 1372,
      "Ġbecause": 1373,
      "RE": 1374,
      "ement": 1375,
      "Ġx": 1376,
      "Ġown": 1377,
      "Ġthink": 1378,
      "aking": 1379,
      "We": 1380,
      "ç½": 1381,
      "è¿ĺ": 1382,
      "ĠPro": 1383,
      "Ġpol": 1384,
      "It": 1385,
      "çĿ": 1386,
      "olog": 1387,
      "Ð²Ð¾": 1388,
      "atic": 1389,
      "mathcal": 1390,
      "å¼Ģ": 1391,
      "ature": 1392,
      "å·¥": 1393,
      "ho": 1394,
      "Ġinclud": 1395,
      "ĠAl": 1396,
      "AT": 1397,
      "å¤©": 1398,
      "åĢ": 1399,
      "ead": 1400,
      "Ġmade": 1401,
      "å®ŀ": 1402,
      "tt": 1403,
      "æĸ°": 1404,
      "ms": 1405,
      "Ġstr": 1406,
      "pend": 1407,
      "Ġche": 1408,
      "Ġrun": 1409,
      "åĬĽ": 1410,
      "way": 1411,
      ",\\": 1412,
      "Ġaut": 1413,
      "man": 1414,
      "å¦Ĥ": 1415,
      "cond": 1416,
      "})": 1417,
      "ĠĠĠĠĠĠ": 1418,
      "oid": 1419,
      "Ġpoint": 1420,
      "ider": 1421,
      "ute": 1422,
      "Ġfr": 1423,
      "}.": 1424,
      "la": 1425,
      "Ġgiv": 1426,
      "ton": 1427,
      "ale": 1428,
      "åħ¬": 1429,
      "tain": 1430,
      "ery": 1431,
      "Pro": 1432,
      "ruct": 1433,
      "ST": 1434,
      "Ġbeing": 1435,
      "ittle": 1436,
      "Ġvalue": 1437,
      "====": 1438,
      "Ġbetween": 1439,
      "ank": 1440,
      "equation": 1441,
      "__": 1442,
      "æľĢ": 1443,
      "ĠX": 1444,
      "ci": 1445,
      "åħ¨": 1446,
      "Ġrep": 1447,
      "Ġdifferent": 1448,
      "Ġtype": 1449,
      "ĠÃ©": 1450,
      "ines": 1451,
      "Ġpass": 1452,
      "ants": 1453,
      "å¾Ī": 1454,
      "ç¾": 1455,
      "å¸Ĥ": 1456,
      "ĠĠĠĠĠĠĠĠĠĠĠĠĠĠĠĠĠĠĠ": 1457,
      "Ġdec": 1458,
      "è¿Ľ": 1459,
      "Ġcase": 1460,
      "Ġhigh": 1461,
      "Ġthose": 1462,
      "Ġmon": 1463,
      "Ġfam": 1464,
      "ness": 1465,
      "ots": 1466,
      "for": 1467,
      "Ġed": 1468,
      "tring": 1469,
      "Ġfil": 1470,
      "è¶": 1471,
      "Ġsign": 1472,
      "ĠEl": 1473,
      "ĠBut": 1474,
      "iqu": 1475,
      "ric": 1476,
      "Ġwhile": 1477,
      "Ġexper": 1478,
      "æĹ¥": 1479,
      "pon": 1480,
      "Ġsay": 1481,
      "åīį": 1482,
      "press": 1483,
      "ctions": 1484,
      "formation": 1485,
      "roup": 1486,
      "Ġinte": 1487,
      "ÑĬÑĢ": 1488,
      "ç®": 1489,
      "Ġav": 1490,
      "Ġperson": 1491,
      "Ġday": 1492,
      "Ġ||": 1493,
      "ĠFor": 1494,
      "Ex": 1495,
      "çĲĨ": 1496,
      "Ġvari": 1497,
      "ethod": 1498,
      "Ġdi": 1499,
      "ually": 1500,
      "Ġ#": 1501,
      "ames": 1502,
      "Ġfound": 1503,
      "('": 1504,
      "éĥ": 1505,
      "å®ļ": 1506,
      "åĲĮ": 1507,
      "ample": 1508,
      "))": 1509,
      "Ð¼Ð°": 1510,
      "æ³ķ": 1511,
      "****": 1512,
      "me": 1513,
      "ä½ĵ": 1514,
      "til": 1515,
      "ouse": 1516,
      "Ġequ": 1517,
      "Ġstud": 1518,
      "dd": 1519,
      "Ġproble": 1520,
      "min": 1521,
      "ç¬": 1522,
      "vent": 1523,
      "ces": 1524,
      "Ġlist": 1525,
      "çŁ": 1526,
      "Ġsom": 1527,
      "æĻ": 1528,
      "Ġtake": 1529,
      "AR": 1530,
      "name": 1531,
      "è½¦": 1532,
      "Con": 1533,
      "Ġmust": 1534,
      "here": 1535,
      "ited": 1536,
      "çŃī": 1537,
      "Ġplay": 1538,
      "}(": 1539,
      "çľĭ": 1540,
      "çĦ": 1541,
      "è°": 1542,
      "LE": 1543,
      "ody": 1544,
      "Ð»Ð¾": 1545,
      "rest": 1546,
      "Ġind": 1547,
      "Ġposs": 1548,
      "span": 1549,
      "ets": 1550,
      "ĠQ": 1551,
      "Ġhav": 1552,
      "und": 1553,
      "uring": 1554,
      "Ġyears": 1555,
      "æīĢ": 1556,
      "åħ¶": 1557,
      "def": 1558,
      "Ð´Ð°": 1559,
      "itat": 1560,
      "}^": 1561,
      "Ġlast": 1562,
      "Ġchar": 1563,
      "Ġinstall": 1564,
      "Ġrequ": 1565,
      "iness": 1566,
      "This": 1567,
      "less": 1568,
      "land": 1569,
      "é£": 1570,
      "this": 1571,
      "Ġboth": 1572,
      "}_": 1573,
      "ought": 1574,
      "></": 1575,
      "ĠAr": 1576,
      "pre": 1577,
      "Ġsur": 1578,
      "Ð¸ÑĤÐµ": 1579,
      "Ġbr": 1580,
      "Ġerr": 1581,
      "~\\": 1582,
      "untu": 1583,
      "Ġmat": 1584,
      "Ġlittle": 1585,
      "aut": 1586,
      "ional": 1587,
      "sub": 1588,
      "çĤ¹": 1589,
      "Ġreal": 1590,
      "gan": 1591,
      "Ġstill": 1592,
      "Ġ--": 1593,
      "ired": 1594,
      "ument": 1595,
      "inal": 1596,
      "work": 1597,
      "cent": 1598,
      "ense": 1599,
      "éķ¿": 1600,
      "åĿ": 1601,
      "ced": 1602,
      "Ð½Ðµ": 1603,
      "Ġnumber": 1604,
      "èĢħ": 1605,
      "ves": 1606,
      "cept": 1607,
      "Ġbest": 1608,
      "äºĭ": 1609,
      "Ġrest": 1610,
      "><": 1611,
      "Ãº": 1612,
      "idth": 1613,
      "ized": 1614,
      "ä¸Ģä¸ª": 1615,
      "indow": 1616,
      "Ġbus": 1617,
      "éĤ": 1618,
      "ÑĪ": 1619,
      "ä¸İ": 1620,
      "æı": 1621,
      "alk": 1622,
      "Ġdels": 1623,
      "://": 1624,
      "ational": 1625,
      "æľº": 1626,
      "pha": 1627,
      "ĠÐ¡": 1628,
      "part": 1629,
      "æĥħ": 1630,
      "ply": 1631,
      "Ġlet": 1632,
      "åĲĪ": 1633,
      "ee": 1634,
      "Ġinf": 1635,
      "ÑĩÐµ": 1636,
      "ava": 1637,
      "Ġmem": 1638,
      "Ġterm": 1639,
      "ĠAn": 1640,
      "æľ¬": 1641,
      "ÐºÐ¾": 1642,
      "irc": 1643,
      "èĬ": 1644,
      "bl": 1645,
      "äº§": 1646,
      "Ġ*/": 1647,
      "Ġcurrent": 1648,
      "çĿĢ": 1649,
      "gram": 1650,
      "co": 1651,
      "br": 1652,
      "Ġtoo": 1653,
      "çĦ¶": 1654,
      "Ã¡": 1655,
      "Ġgl": 1656,
      "Ġvol": 1657,
      "éĹ´": 1658,
      "ä¸»": 1659,
      "éĽ": 1660,
      "Ġwr": 1661,
      "èī": 1662,
      "ason": 1663,
      "æľĪ": 1664,
      "Ġpartic": 1665,
      "Ġimport": 1666,
      "Ġmight": 1667,
      "arn": 1668,
      "æį": 1669,
      "Ġins": 1670,
      "æ²¡": 1671,
      "é¡": 1672,
      "Ġwithout": 1673,
      "ared": 1674,
      "ault": 1675,
      "Ġvis": 1676,
      "Ġz": 1677,
      "å½ĵ": 1678,
      "##": 1679,
      "éĩĮ": 1680,
      "Â·": 1681,
      "Ġtry": 1682,
      "æ¶": 1683,
      "bar": 1684,
      "å§": 1685,
      "ote": 1686,
      "éĥ¨": 1687,
      "éļ": 1688,
      "ĠLa": 1689,
      "Ġcount": 1690,
      "Ġtem": 1691,
      "ĠÐ¿ÑĢÐµ": 1692,
      "ways": 1693,
      "alpha": 1694,
      "ina": 1695,
      "Ð³Ð°": 1696,
      "ades": 1697,
      "OR": 1698,
      "Ġprocess": 1699,
      "åľº": 1700,
      "tic": 1701,
      "pec": 1702,
      "åĬł": 1703,
      "Com": 1704,
      "ä½Ĩ": 1705,
      "ĠÐ±": 1706,
      "çĪ": 1707,
      "aj": 1708,
      "ser": 1709,
      "Ġll": 1710,
      "Ġele": 1711,
      "Ġold": 1712,
      "Ġdirect": 1713,
      "Ġfact": 1714,
      "velop": 1715,
      "ten": 1716,
      "ters": 1717,
      "rop": 1718,
      "Ġhome": 1719,
      "ä¹Ī": 1720,
      "Ġopen": 1721,
      "ven": 1722,
      "Ġve": 1723,
      "ĠHow": 1724,
      "ĠĠĠĠĠĠĠĠĠĠĠĠĠĠĠĠĠĠĠĠĠĠĠĠĠĠĠĠĠĠĠĠ": 1725,
      "ÑĨÐ¸": 1726,
      "Ġtest": 1727,
      "Ġlife": 1728,
      "æĢ§": 1729,
      "ç¨": 1730,
      "åĽł": 1731,
      "ĠÐºÐ¾": 1732,
      "ĠAs": 1733,
      "Ġword": 1734,
      "åĮĸ": 1735,
      "Ġappro": 1736,
      "éĩį": 1737,
      "ext": 1738,
      "ething": 1739,
      "EN": 1740,
      "åĵģ": 1741,
      "td": 1742,
      "Ġmen": 1743,
      "Name": 1744,
      "ann": 1745,
      "Ġmed": 1746,
      "ished": 1747,
      "åħ³": 1748,
      "Ġcle": 1749,
      "AL": 1750,
      "Ġseem": 1751,
      "orn": 1752,
      "oci": 1753,
      "rol": 1754,
      "ç¤": 1755,
      "ience": 1756,
      "Ġinformation": 1757,
      "az": 1758,
      "éģĵ": 1759,
      "Ġsmall": 1760,
      "Ġfile": 1761,
      "èµ·": 1762,
      "Ġdisc": 1763,
      ")\\": 1764,
      "ior": 1765,
      "ried": 1766,
      "Ġpost": 1767,
      "ross": 1768,
      "æ¯Ķ": 1769,
      "add": 1770,
      "erg": 1771,
      "ases": 1772,
      "arm": 1773,
      "au": 1774,
      "riend": 1775,
      "load": 1776,
      "èģ": 1777,
      "akes": 1778,
      "oot": 1779,
      "):": 1780,
      "ved": 1781,
      "Ġdesc": 1782,
      "ĠSh": 1783,
      "inc": 1784,
      "åĨħ": 1785,
      "bs": 1786,
      "yp": 1787,
      "html": 1788,
      "inu": 1789,
      "ĉĉĉ": 1790,
      "Ġself": 1791,
      "thing": 1792,
      "Ġcent": 1793,
      "mod": 1794,
      "ek": 1795,
      "Ġquest": 1796,
      ".,": 1797,
      "va": 1798,
      "Ġcour": 1799,
      "ç§į": 1800,
      "æĽ´": 1801,
      "elta": 1802,
      "alse": 1803,
      "pi": 1804,
      "sum": 1805,
      "ambda": 1806,
      "ID": 1807,
      "Ġconf": 1808,
      "arc": 1809,
      "Ġplace": 1810,
      "../../": 1811,
      "ives": 1812,
      "éĢļ": 1813,
      "ustom": 1814,
      "ides": 1815,
      "éĶ": 1816,
      "gg": 1817,
      "æĪĳä»¬": 1818,
      "Ġra": 1819,
      "lease": 1820,
      "Ġdesign": 1821,
      "ware": 1822,
      "Ġpower": 1823,
      "ĠCon": 1824,
      "åº¦": 1825,
      "Ġproper": 1826,
      "åİ»": 1827,
      "Ġpresent": 1828,
      "view": 1829,
      "æŀľ": 1830,
      "ĠÐ°": 1831,
      "nect": 1832,
      "ĠÐŁ": 1833,
      "Id": 1834,
      "Ġorder": 1835,
      "å»": 1836,
      "new": 1837,
      "Ġeas": 1838,
      "trans": 1839,
      "Ġhapp": 1840,
      "å·±": 1841,
      "Ġcr": 1842,
      "Ġworld": 1843,
      "rem": 1844,
      "Ð²Ð¸": 1845,
      "ĉ}": 1846,
      "If": 1847,
      "å°Ĩ": 1848,
      "ç©": 1849,
      "æ°´": 1850,
      "atur": 1851,
      "çĻ": 1852,
      "Ġthree": 1853,
      "æĹł": 1854,
      "Ġsupport": 1855,
      "ivers": 1856,
      "ç¾İ": 1857,
      "ĠFr": 1858,
      "arge": 1859,
      "Ġfew": 1860,
      "ĠCl": 1861,
      "$\\": 1862,
      "ertain": 1863,
      "Ġsecond": 1864,
      "Ġcome": 1865,
      "Ġnever": 1866,
      "Ġchild": 1867,
      "ccess": 1868,
      "Ġtop": 1869,
      "cur": 1870,
      "amma": 1871,
      "Ġgoing": 1872,
      "éĤ£": 1873,
      "Ġsomething": 1874,
      "æŁ": 1875,
      "åı¯ä»¥": 1876,
      "El": 1877,
      "apt": 1878,
      "Ġ>": 1879,
      "SE": 1880,
      "umn": 1881,
      "lation": 1882,
      "ered": 1883,
      "Ġoper": 1884,
      "uss": 1885,
      "alth": 1886,
      "amet": 1887,
      "back": 1888,
      "èĩªå·±": 1889,
      "var": 1890,
      "å¢": 1891,
      "arly": 1892,
      "Ġfollowing": 1893,
      "Ġide": 1894,
      "åħ¥": 1895,
      "vert": 1896,
      "Ġbre": 1897,
      "To": 1898,
      "version": 1899,
      "ped": 1900,
      "import": 1901,
      "ality": 1902,
      "å¸¸": 1903,
      "ify": 1904,
      "ici": 1905,
      "Ġsl": 1906,
      "æīĭ": 1907,
      "Ġet": 1908,
      "åĮº": 1909,
      "ream": 1910,
      "raph": 1911,
      "æł·": 1912,
      "Ġanother": 1913,
      "_\\": 1914,
      "source": 1915,
      "Ġdev": 1916,
      "Ġhead": 1917,
      "ency": 1918,
      "Ġ\\\\": 1919,
      "çķ": 1920,
      "Ġreally": 1921,
      "esc": 1922,
      "ik": 1923,
      "Ġhref": 1924,
      "Ch": 1925,
      "ĠRe": 1926,
      "Ġtrue": 1927,
      "=\\": 1928,
      "Ġprof": 1929,
      "æĸĩ": 1930,
      "Type": 1931,
      "æģ": 1932,
      "Ġsk": 1933,
      "ists": 1934,
      "å¤ĸ": 1935,
      "æ¬¡": 1936,
      "ä¸ī": 1937,
      "ä½į": 1938,
      "reg": 1939,
      "itor": 1940,
      "Ġeffect": 1941,
      "ç³": 1942,
      "Ġproduct": 1943,
      "yn": 1944,
      "AN": 1945,
      "mu": 1946,
      "Ġturn": 1947,
      "çĹ": 1948,
      "æĦı": 1949,
      "éħ": 1950,
      "Ġopt": 1951,
      "Ð´Ðµ": 1952,
      "Ġpur": 1953,
      "è¢": 1954,
      "ĠThey": 1955,
      "by": 1956,
      "Ġput": 1957,
      "Ġalways": 1958,
      "äºĽ": 1959,
      "ÑģÐºÐ¸": 1960,
      "wh": 1961,
      "Ġsince": 1962,
      "æĺİ": 1963,
      "éľ": 1964,
      "çĸ": 1965,
      "reen": 1966,
      "?\"": 1967,
      "éĩı": 1968,
      "Ġmain": 1969,
      "ä»İ": 1970,
      "Ġsw": 1971,
      "âĢĶ": 1972,
      "ott": 1973,
      "ger": 1974,
      "çĽ¸": 1975,
      "Ar": 1976,
      "Ġstate": 1977,
      "âĢŀ": 1978,
      "Ġelse": 1979,
      "comm": 1980,
      "ĠZ": 1981,
      "ĠSe": 1982,
      "Ġaround": 1983,
      "ask": 1984,
      "Ġid": 1985,
      "Ġinde": 1986,
      "ĠDe": 1987,
      "For": 1988,
      "att": 1989,
      "son": 1990,
      "arent": 1991,
      "Cl": 1992,
      "Ð½Ð¸Ñı": 1993,
      "date": 1994,
      "Ġmark": 1995,
      "èº": 1996,
      "Ġ=>": 1997,
      "por": 1998,
      "chool": 1999,
      "ï¼Ľ": 2000,
      "ism": 2001,
      "æıĲ": 2002,
      "mathbb": 2003,
      "sw": 2004,
      "ining": 2005,
      "ĠNew": 2006,
      "message": 2007,
      "ien": 2008,
      "Ġallow": 2009,
      "yle": 2010,
      "Ġmet": 2011,
      "Ġthings": 2012,
      "item": 2013,
      "itz": 2014,
      "----------------": 2015,
      "String": 2016,
      "str": 2017,
      "Ġbetter": 2018,
      "Ġmodel": 2019,
      "stand": 2020,
      "Ġfield": 2021,
      "æĥ³": 2022,
      "Ġlead": 2023,
      "ole": 2024,
      "ope": 2025,
      "med": 2026,
      "chn": 2027,
      "Ġgiven": 2028,
      "Al": 2029,
      "Ġ`": 2030,
      "roll": 2031,
      "ering": 2032,
      "Ġadv": 2033,
      "log": 2034,
      "ization": 2035,
      "raw": 2036,
      "ç¬¬": 2037,
      "igma": 2038,
      "Ġstand": 2039,
      "Ġcond": 2040,
      "}_{": 2041,
      "ified": 2042,
      "Ġprogram": 2043,
      "Ð¼Ðµ": 2044,
      "æľŁ": 2045,
      "Ġdevelop": 2046,
      "play": 2047,
      "ength": 2048,
      "Ġsure": 2049,
      "èĲ": 2050,
      "Ġ,": 2051,
      "Ġmethod": 2052,
      "èµĦ": 2053,
      "You": 2054,
      "loc": 2055,
      "}^{": 2056,
      "eps": 2057,
      "èĥ": 2058,
      "Ġmean": 2059,
      "Ġseg": 2060,
      "Ġtot": 2061,
      "Ġcare": 2062,
      "ah": 2063,
      "ither": 2064,
      "Ġupon": 2065,
      "Ġproblem": 2066,
      "ä¿Ŀ": 2067,
      "Ġvan": 2068,
      "Ġpat": 2069,
      "Ġpres": 2070,
      "ĠThere": 2071,
      "çĥ": 2072,
      "ĠÐļ": 2073,
      "Ġhard": 2074,
      "omen": 2075,
      "Res": 2076,
      "ception": 2077,
      "ĠEx": 2078,
      "oss": 2079,
      "CT": 2080,
      "Ġ!": 2081,
      "åºĶ": 2082,
      "Ð¿Ð¾": 2083,
      "èĭ": 2084,
      "cul": 2085,
      "ĠSo": 2086,
      "ĠÐ¸Ð·": 2087,
      "Ġask": 2088,
      "åģļ": 2089,
      "ç¥": 2090,
      "Ġsing": 2091,
      "ĉ\\": 2092,
      "ç²": 2093,
      "Ġfree": 2094,
      "ule": 2095,
      "serv": 2096,
      "Ġsit": 2097,
      "ral": 2098,
      "oh": 2099,
      "Ġappe": 2100,
      "èĦ": 2101,
      "Ġgive": 2102,
      "ential": 2103,
      "æ´»": 2104,
      "Ġbusiness": 2105,
      "çĶµ": 2106,
      "ailable": 2107,
      "èº«": 2108,
      "ital": 2109,
      "cont": 2110,
      "Ġperform": 2111,
      "Ġnext": 2112,
      "éĴ": 2113,
      "ron": 2114,
      "Ġwon": 2115,
      "Ġleft": 2116,
      "IT": 2117,
      "ctor": 2118,
      "hor": 2119,
      "-\\": 2120,
      "code": 2121,
      "htt": 2122,
      "Ġlog": 2123,
      "As": 2124,
      "è®©": 2125,
      "Ġlove": 2126,
      "Ġprim": 2127,
      "ĠIs": 2128,
      "ately": 2129,
      "ĠShe": 2130,
      "Ġkey": 2131,
      "å±ķ": 2132,
      "æŃ¤": 2133,
      "ria": 2134,
      "Ġbook": 2135,
      "return": 2136,
      "ively": 2137,
      "Ġfriend": 2138,
      "che": 2139,
      "æĦŁ": 2140,
      "åıª": 2141,
      "ĠTr": 2142,
      "Ġsent": 2143,
      "Ġexpl": 2144,
      "å¹³": 2145,
      "Ġten": 2146,
      "Ð¼Ð¸": 2147,
      "ele": 2148,
      "Ġgot": 2149,
      "type": 2150,
      "uff": 2151,
      "ook": 2152,
      "å¹¶": 2153,
      "çĽ®": 2154,
      "ane": 2155,
      "Ġlight": 2156,
      "éĩĳ": 2157,
      "ĠTo": 2158,
      "Ġobject": 2159,
      "ï¼ģ": 2160,
      "SS": 2161,
      "Ġexpect": 2162,
      "ateg": 2163,
      "bol": 2164,
      "aster": 2165,
      "å»º": 2166,
      "org": 2167,
      "çī©": 2168,
      "åĸ": 2169,
      "Ġnon": 2170,
      "itions": 2171,
      "bf": 2172,
      "Ġiss": 2173,
      "ache": 2174,
      "Ġcou": 2175,
      "width": 2176,
      "align": 2177,
      "åķ": 2178,
      "ey": 2179,
      "ĠWh": 2180,
      "ush": 2181,
      "rivate": 2182,
      "Ġcal": 2183,
      "Val": 2184,
      "çģ": 2185,
      "class": 2186,
      "æ·": 2187,
      "ably": 2188,
      "Ġerror": 2189,
      "Ġinterest": 2190,
      "^{\\": 2191,
      "Ġcomple": 2192,
      "æ°ĳ": 2193,
      "Ġcho": 2194,
      "ĠMr": 2195,
      "phi": 2196,
      "åĬ¡": 2197,
      "Ġpossible": 2198,
      "section": 2199,
      "aps": 2200,
      "Ġfull": 2201,
      "mathbf": 2202,
      "Ġexample": 2203,
      "itle": 2204,
      "é©": 2205,
      "æŃ£": 2206,
      "åıĬ": 2207,
      "ains": 2208,
      "è¢«": 2209,
      "æ²¡æľī": 2210,
      "Ġmar": 2211,
      "met": 2212,
      "Ġfeel": 2213,
      "ç´": 2214,
      "Ġthought": 2215,
      "è¡¨": 2216,
      "åĲį": 2217,
      "ç±": 2218,
      "An": 2219,
      "å®ī": 2220,
      "fe": 2221,
      "/>": 2222,
      "hip": 2223,
      "ï¼Ł": 2224,
      "Ġconsider": 2225,
      "lish": 2226,
      "ety": 2227,
      "ries": 2228,
      "lambda": 2229,
      "èĪ": 2230,
      "ically": 2231,
      "Ref": 2232,
      "Ġcorre": 2233,
      "ĠÐľ": 2234,
      "Ġdat": 2235,
      "bers": 2236,
      "ling": 2237,
      "Ġ)": 2238,
      "ĠCol": 2239,
      "Ġkeep": 2240,
      "Ġmult": 2241,
      "erence": 2242,
      "where": 2243,
      "erc": 2244,
      "Ġincre": 2245,
      "Ġless": 2246,
      "ncia": 2247,
      "opt": 2248,
      "Ġable": 2249,
      "ĠÑģÑĬ": 2250,
      "Ġvar": 2251,
      "Ġseu": 2252,
      "cd": 2253,
      "ww": 2254,
      "List": 2255,
      "RO": 2256,
      "Ġdri": 2257,
      "Ġlevel": 2258,
      "Ġport": 2259,
      "ume": 2260,
      "ĠÐĳ": 2261,
      "Ġchange": 2262,
      "è®¾": 2263,
      "é¦": 2264,
      "aces": 2265,
      "æķ°": 2266,
      "net": 2267,
      "aw": 2268,
      "ided": 2269,
      "Ġrece": 2270,
      "ances": 2271,
      "çł": 2272,
      "inter": 2273,
      "ently": 2274,
      "Ġbro": 2275,
      "åĳĺ": 2276,
      "ift": 2277,
      "åĪ¶": 2278,
      "En": 2279,
      "And": 2280,
      "rist": 2281,
      "arget": 2282,
      "box": 2283,
      "ability": 2284,
      "ĠÐĴ": 2285,
      "face": 2286,
      "top": 2287,
      "ç¼": 2288,
      "æ¡": 2289,
      "param": 2290,
      "den": 2291,
      "ĠEng": 2292,
      "ĠPl": 2293,
      "ida": 2294,
      "Ġcost": 2295,
      "with": 2296,
      "Ġbuild": 2297,
      "ED": 2298,
      "Ġnet": 2299,
      "unic": 2300,
      "Ġlocal": 2301,
      "Ġaway": 2302,
      "rr": 2303,
      "go": 2304,
      "ÑģÐºÐ°": 2305,
      "ana": 2306,
      "ÐºÐ¸": 2307,
      "èĢģ": 2308,
      "Ġproject": 2309,
      "å·²": 2310,
      "ĠÐºÐ°": 2311,
      "Ġstat": 2312,
      "util": 2313,
      "ä¸¤": 2314,
      "fo": 2315,
      "ember": 2316,
      "Ġlarge": 2317,
      "Ġ==": 2318,
      "ä¿¡": 2319,
      "Ġduring": 2320,
      "mon": 2321,
      "æĪĸ": 2322,
      "ention": 2323,
      "Ġavailable": 2324,
      "åĪ©": 2325,
      "Ġocc": 2326,
      "Ġpo": 2327,
      "Ġfinal": 2328,
      "Ġlim": 2329,
      "Ġabove": 2330,
      "Ñİ": 2331,
      "ision": 2332,
      "Ġtre": 2333,
      "ĠInd": 2334,
      "Ġcirc": 2335,
      "Ġmom": 2336,
      "èį": 2337,
      "Ġenc": 2338,
      "Ġ{\\": 2339,
      "figure": 2340,
      "Ġcheck": 2341,
      "ology": 2342,
      "Ġview": 2343,
      "Ġpot": 2344,
      "ised": 2345,
      "acter": 2346,
      "çŁ¥": 2347,
      "Ð³Ð¾": 2348,
      "ived": 2349,
      "ado": 2350,
      "ÑĩÐ°": 2351,
      "çī¹": 2352,
      "ĠEn": 2353,
      "Ġwater": 2354,
      "use": 2355,
      "ready": 2356,
      "AM": 2357,
      "ÑĬÐ»": 2358,
      "åħĥ": 2359,
      "ĠAp": 2360,
      "Ġnull": 2361,
      "alt": 2362,
      "æ°Ķ": 2363,
      "Ġchang": 2364,
      "asure": 2365,
      "ĠNo": 2366,
      "Ġfar": 2367,
      "Ġdone": 2368,
      "LL": 2369,
      "ç³»": 2370,
      "ission": 2371,
      "ĠĠĠĠĠĠĠĠĠĠĠĠĠ": 2372,
      "Ġcame": 2373,
      "\"/>": 2374,
      "Ġimportant": 2375,
      "Ġtable": 2376,
      "most": 2377,
      "å¥³": 2378,
      "ables": 2379,
      "ird": 2380,
      "but": 2381,
      "unity": 2382,
      "Ġwithin": 2383,
      "Ġapplic": 2384,
      "Ġcustom": 2385,
      "ilon": 2386,
      "Ġside": 2387,
      "Ġbeh": 2388,
      "ç¡": 2389,
      "Ġpack": 2390,
      "ocument": 2391,
      "head": 2392,
      "Ġaff": 2393,
      "fun": 2394,
      "But": 2395,
      "ges": 2396,
      "vious": 2397,
      "Ð½Ð¸Ðµ": 2398,
      "å°±æĺ¯": 2399,
      "ĠÑĦ": 2400,
      "Ġgeneral": 2401,
      "ails": 2402,
      "Ð¾ÑĢ": 2403,
      "ä»£": 2404,
      "angle": 2405,
      "å£": 2406,
      "Ġdr": 2407,
      "Ġsize": 2408,
      "Ġprob": 2409,
      "Ġtell": 2410,
      "dis": 2411,
      "è·¯": 2412,
      "ç®¡": 2413,
      "ĠGr": 2414,
      "iment": 2415,
      "lection": 2416,
      "uit": 2417,
      "Ġservice": 2418,
      "æķĻ": 2419,
      "ona": 2420,
      "Ġthing": 2421,
      "Ð¾Ð½": 2422,
      "Ġinc": 2423,
      "Ġcalled": 2424,
      "Ġorig": 2425,
      "ĠOn": 2426,
      "ga": 2427,
      "ĠAll": 2428,
      "Ġhum": 2429,
      "ET": 2430,
      "ait": 2431,
      "Ġtext": 2432,
      "ç½ĳ": 2433,
      "Ġnom": 2434,
      "ncies": 2435,
      "aper": 2436,
      "Ġmov": 2437,
      "Ġver": 2438,
      "ager": 2439,
      "uck": 2440,
      "ç»Ļ": 2441,
      "Cont": 2442,
      "ours": 2443,
      "ĠÑĥ": 2444,
      "Ġpop": 2445,
      "ĠÐ´Ð°": 2446,
      "Ġkind": 2447,
      "ĠÑĢÐ°": 2448,
      "Ġplan": 2449,
      "He": 2450,
      "Ġthough": 2451,
      "Ġhist": 2452,
      "Ġapp": 2453,
      "Ġseva": 2454,
      "ÐµÑĢ": 2455,
      "Ġmeans": 2456,
      "Ġconnect": 2457,
      "key": 2458,
      "data": 2459,
      "Ġart": 2460,
      "ĠWhat": 2461,
      "Ġaccess": 2462,
      "Ġintern": 2463,
      "ãĢĭ": 2464,
      "\")": 2465,
      "atal": 2466,
      "ially": 2467,
      "éĹ®": 2468,
      "ãĢĬ": 2469,
      "no": 2470,
      "ieve": 2471,
      "Ġresults": 2472,
      "ĠWhen": 2473,
      "åı¸": 2474,
      "é¢ĺ": 2475,
      "å¼ı": 2476,
      "è§£": 2477,
      "duct": 2478,
      "Ġlib": 2479,
      "\\\\": 2480,
      "Ġagainst": 2481,
      "Ġanal": 2482,
      "Ġmonth": 2483,
      "fect": 2484,
      "ribut": 2485,
      "Ġtechn": 2486,
      "Tr": 2487,
      "Ġey": 2488,
      "ĠOr": 2489,
      "na": 2490,
      "._": 2491,
      "array": 2492,
      "ä¸ŃåĽ½": 2493,
      "âĢ¦": 2494,
      "Ġlow": 2495,
      "beta": 2496,
      "Ġhaving": 2497,
      "æ»": 2498,
      "pose": 2499,
      "Ġfre": 2500,
      "atter": 2501,
      "list": 2502,
      "Ġvoid": 2503,
      "Ġbas": 2504,
      "Ġprom": 2505,
      "ĠÐĲ": 2506,
      "Ġdays": 2507,
      "Ġreport": 2508,
      "æīĵ": 2509,
      "åĪ«": 2510,
      "sigma": 2511,
      "Ġquestion": 2512,
      "aven": 2513,
      "DE": 2514,
      "itive": 2515,
      "Ġspace": 2516,
      "Ġdepend": 2517,
      "ploy": 2518,
      "')": 2519,
      "alf": 2520,
      "}{\\": 2521,
      "translation": 2522,
      "oney": 2523,
      "å¼º": 2524,
      "Ġcommand": 2525,
      "Ġfalse": 2526,
      "Ġenough": 2527,
      "äº¤": 2528,
      "ponse": 2529,
      "Ġprote": 2530,
      "buntu": 2531,
      "ĠĠĠĠĠĠĠĠĠĠĠĠĠĠĠĠĠĠĠĠĠĠĠ": 2532,
      "gl": 2533,
      "ä»·": 2534,
      "è®¡": 2535,
      "Ġevent": 2536,
      "vern": 2537,
      "!\"": 2538,
      "px": 2539,
      "éª": 2540,
      "éĵ": 2541,
      "IC": 2542,
      "ister": 2543,
      "å°ĳ": 2544,
      "ĠMar": 2545,
      "ret": 2546,
      "äºĮ": 2547,
      "II": 2548,
      "Ġ(\\": 2549,
      "ards": 2550,
      "çº¿": 2551,
      "Ð·Ð¸": 2552,
      "åŀ": 2553,
      "Ġgrow": 2554,
      "Ġsum": 2555,
      "ç¦": 2556,
      "Ġteam": 2557,
      "Ġhouse": 2558,
      "pm": 2559,
      "æĤ": 2560,
      "Ġonce": 2561,
      "Ġweek": 2562,
      "Ġroom": 2563,
      "Ġrepresent": 2564,
      "roid": 2565,
      "è£": 2566,
      "Ġbig": 2567,
      "iron": 2568,
      "Ġcertain": 2569,
      "ape": 2570,
      "Ġalready": 2571,
      "ĠÐ³Ð¾": 2572,
      "that": 2573,
      "ç¨ĭ": 2574,
      "ĠSp": 2575,
      "^{-": 2576,
      "Ġshort": 2577,
      "ä¸ĩ": 2578,
      "Ġunderstand": 2579,
      "ler": 2580,
      "ä½¿": 2581,
      "lu": 2582,
      "ination": 2583,
      "bt": 2584,
      "ĠAmer": 2585,
      "includ": 2586,
      "irt": 2587,
      "é»": 2588,
      "ples": 2589,
      "Ġparticular": 2590,
      "mathrm": 2591,
      "Ġgroup": 2592,
      "pond": 2593,
      "AC": 2594,
      "itional": 2595,
      "action": 2596,
      "iles": 2597,
      "ĉ<": 2598,
      "my": 2599,
      "\");": 2600,
      "å¥¹": 2601,
      "Ġtimes": 2602,
      "Ġlot": 2603,
      "Ġorgan": 2604,
      "ium": 2605,
      "Ġcreate": 2606,
      "Ġcompany": 2607,
      "ĠThat": 2608,
      "ĠPr": 2609,
      "ĠAd": 2610,
      "åıĹ": 2611,
      "string": 2612,
      "æİ¥": 2613,
      "èī²": 2614,
      "åİŁ": 2615,
      "ĠUS": 2616,
      "Ġfamily": 2617,
      "Ġyet": 2618,
      "rc": 2619,
      "Col": 2620,
      "ession": 2621,
      "Ġpay": 2622,
      "ended": 2623,
      "Ġgame": 2624,
      "ÑĢÑĥ": 2625,
      "indows": 2626,
      "Ġversion": 2627,
      "èĻ": 2628,
      "Ġcourse": 2629,
      "Ġmus": 2630,
      "Ġexc": 2631,
      "ground": 2632,
      "ilar": 2633,
      "æĮģ": 2634,
      "af": 2635,
      "Ġsuccess": 2636,
      "Ġben": 2637,
      "Ð½Ð°ÑĤÐ°": 2638,
      "Ġexist": 2639,
      "What": 2640,
      "+\\": 2641,
      "Ġret": 2642,
      "Ġwhy": 2643,
      "Ġu": 2644,
      "Ġuntil": 2645,
      "Ġmor": 2646,
      "Ġever": 2647,
      "sq": 2648,
      "outh": 2649,
      "Ġrespect": 2650,
      "itch": 2651,
      "*}": 2652,
      "Ġnight": 2653,
      "Ġaccount": 2654,
      "å¤´": 2655,
      "é£İ": 2656,
      "åĲĳ": 2657,
      "ĠPh": 2658,
      "Ġsat": 2659,
      "æĶ¾": 2660,
      "umber": 2661,
      "Ġstring": 2662,
      "script": 2663,
      "çľŁ": 2664,
      "ox": 2665,
      "åįģ": 2666,
      "æį®": 2667,
      "Ð°ÑĢ": 2668,
      "Ġelect": 2669,
      "ador": 2670,
      "opy": 2671,
      "åĽŀ": 2672,
      "ĠLe": 2673,
      "Ġwent": 2674,
      "********": 2675,
      "ription": 2676,
      "Ġuser": 2677,
      "iter": 2678,
      "Ġfore": 2679,
      "]{": 2680,
      "å·¥ä½ľ": 2681,
      "ĠMy": 2682,
      "Ġbit": 2683,
      "çĽ´": 2684,
      "Ġfour": 2685,
      "ç»ĵ": 2686,
      "word": 2687,
      "========": 2688,
      "Ġcontrol": 2689,
      "æ¯ı": 2690,
      "ius": 2691,
      "ero": 2692,
      "aken": 2693,
      "istr": 2694,
      "Ġworking": 2695,
      "Ġschool": 2696,
      "èĩ³": 2697,
      "Ġbeg": 2698,
      "æľį": 2699,
      "åıĺ": 2700,
      "åŁº": 2701,
      "å¤Ħ": 2702,
      "Ġtyp": 2703,
      "Ġmot": 2704,
      "gamma": 2705,
      "ĠÂ": 2706,
      "ĠUbuntu": 2707,
      "Ob": 2708,
      "Ġlooking": 2709,
      "Ġcomput": 2710,
      "hing": 2711,
      "aterial": 2712,
      "arrow": 2713,
      "ĠÐ¢": 2714,
      "æĬĬ": 2715,
      "By": 2716,
      "],": 2717,
      "atures": 2718,
      "ĠÑĤ": 2719,
      "ones": 2720,
      "($": 2721,
      "Ġworks": 2722,
      "IS": 2723,
      "ique": 2724,
      "Data": 2725,
      "Ġalong": 2726,
      "side": 2727,
      "aring": 2728,
      "ES": 2729,
      "ping": 2730,
      "¥¿": 2731,
      "Ġselect": 2732,
      "ories": 2733,
      "ley": 2734,
      "ls": 2735,
      "ĠÐ´Ð¾": 2736,
      "ording": 2737,
      "Ġgovern": 2738,
      "lem": 2739,
      "Ġident": 2740,
      "ĠRes": 2741,
      "Ġarg": 2742,
      "è´¨": 2743,
      "ips": 2744,
      "Ð°Ð½": 2745,
      "ĠBe": 2746,
      "Ġexp": 2747,
      "ĠÐĶ": 2748,
      "ION": 2749,
      "ä¸ľ": 2750,
      "Ġprivate": 2751,
      "Ġoften": 2752,
      "Ġlaw": 2753,
      "Ġleast": 2754,
      "ĠCan": 2755,
      "iver": 2756,
      "éľĢ": 2757,
      "Ġleg": 2758,
      "ura": 2759,
      "éĿŀ": 2760,
      "urs": 2761,
      "Ġlay": 2762,
      "Ġeng": 2763,
      "Ġmind": 2764,
      "^\\": 2765,
      "vol": 2766,
      "urther": 2767,
      "ormal": 2768,
      "ajor": 2769,
      "Ph": 2770,
      "ills": 2771,
      "ĠGod": 2772,
      "åįķ": 2773,
      "Ġprovide": 2774,
      "åĲĦ": 2775,
      "æµ·": 2776,
      "Re": 2777,
      "orth": 2778,
      "ÑģÐ¸": 2779,
      "Ġmoment": 2780,
      "rip": 2781,
      "Ġinput": 2782,
      "HE": 2783,
      "Ġexperience": 2784,
      "Ġhold": 2785,
      "Ġshall": 2786,
      "OT": 2787,
      "ubuntu": 2788,
      "\"><": 2789,
      "æĶ¶": 2790,
      "sec": 2791,
      "mp": 2792,
      "ocial": 2793,
      "Ġstruct": 2794,
      "now": 2795,
      "ĠÐ¿ÑĢÐ¾": 2796,
      "è¥¿": 2797,
      "Ġmag": 2798,
      "ĠBl": 2799,
      "Ġparamet": 2800,
      "posed": 2801,
      "Ġhealth": 2802,
      "ĠAt": 2803,
      "ĠÑģÐ°": 2804,
      "mit": 2805,
      "Ġreason": 2806,
      "ĠMan": 2807,
      "mb": 2808,
      "éĹ¨": 2809,
      "file": 2810,
      "æĬĢ": 2811,
      "ohn": 2812,
      "ista": 2813,
      "åħ¬åı¸": 2814,
      "off": 2815,
      "Ġsingle": 2816,
      "test": 2817,
      "Ġeither": 2818,
      "How": 2819,
      "rror": 2820,
      "Ġwrit": 2821,
      "Ġinit": 2822,
      "Ġyoung": 2823,
      "ogle": 2824,
      "Ġmill": 2825,
      "Ġseen": 2826,
      "Ġoutput": 2827,
      "åı£": 2828,
      "];": 2829,
      "åĨį": 2830,
      "aph": 2831,
      "itud": 2832,
      "Ġsever": 2833,
      "value": 2834,
      "iod": 2835,
      "Un": 2836,
      "inst": 2837,
      "Ġsoft": 2838,
      "Ð´Ð¾": 2839,
      "AP": 2840,
      "udo": 2841,
      "rho": 2842,
      "Ġsuper": 2843,
      "const": 2844,
      "Ġdoesn": 2845,
      "Ġansw": 2846,
      "Ġincluding": 2847,
      "leq": 2848,
      "wards": 2849,
      "\":": 2850,
      "Ð½Ð¸ÑĤÐµ": 2851,
      "gether": 2852,
      "Ġbased": 2853,
      "Ġtogether": 2854,
      "ouble": 2855,
      "Ġexpress": 2856,
      "delta": 2857,
      "æĶ¿": 2858,
      "\".": 2859,
      "do": 2860,
      "Ġitem": 2861,
      "order": 2862,
      "ification": 2863,
      "Ġenerg": 2864,
      "Ã¯": 2865,
      ")}": 2866,
      "acions": 2867,
      "Ġhi": 2868,
      "iving": 2869,
      "ivity": 2870,
      "ĠÐ½Ðµ": 2871,
      "ĠCar": 2872,
      "çĪ±": 2873,
      "Ã¼": 2874,
      "ideo": 2875,
      "Ġfix": 2876,
      "Ġbelow": 2877,
      "sel": 2878,
      "éĻ¢": 2879,
      "ä»¶": 2880,
      "big": 2881,
      "Ġpast": 2882,
      "Ġmaking": 2883,
      "oman": 2884,
      "lib": 2885,
      "å²": 2886,
      "æł¼": 2887,
      "La": 2888,
      "æľ¯": 2889,
      "çĶ±": 2890,
      "ĠGu": 2891,
      "Ġmarket": 2892,
      "ÑģÑĤÐ°": 2893,
      "ored": 2894,
      "Ġsitu": 2895,
      "fort": 2896,
      "leg": 2897,
      "åķĨ": 2898,
      "incip": 2899,
      "Ġclos": 2900,
      "âĢĺ": 2901,
      "ales": 2902,
      "Ġobtain": 2903,
      "ai": 2904,
      "ources": 2905,
      "Ġera": 2906,
      "æĢ»": 2907,
      "æµģ": 2908,
      "body": 2909,
      "ched": 2910,
      "theta": 2911,
      "ĠÐĿ": 2912,
      "è¿Ļä¸ª": 2913,
      "åĢĻ": 2914,
      "ican": 2915,
      "ÑģÑĤÐ¸": 2916,
      "Ġalt": 2917,
      "Ġcorrect": 2918,
      "search": 2919,
      "ules": 2920,
      "On": 2921,
      "ä»»": 2922,
      "Ġcomplet": 2923,
      "acy": 2924,
      "Ġlik": 2925,
      "time": 2926,
      "Ġcomb": 2927,
      "ĠThen": 2928,
      "Ġmass": 2929,
      "ä»Ĭ": 2930,
      "angu": 2931,
      "Ġinvest": 2932,
      "table": 2933,
      "ĠÐ¾Ð±": 2934,
      "è¿Ĳ": 2935,
      "tau": 2936,
      "Ġphot": 2937,
      "Ġmove": 2938,
      "Ġenv": 2939,
      "ids": 2940,
      "è±": 2941,
      "ulation": 2942,
      "$-": 2943,
      "refore": 2944,
      "Value": 2945,
      "ĠUnivers": 2946,
      "åŃ©": 2947,
      "Ġpract": 2948,
      "uro": 2949,
      "ymbol": 2950,
      "sk": 2951,
      "æ®": 2952,
      "Ġhtt": 2953,
      "ened": 2954,
      "Ġstrong": 2955,
      "ĉif": 2956,
      "æīį": 2957,
      "Ġrepl": 2958,
      "dev": 2959,
      "There": 2960,
      "å¸¦": 2961,
      "OS": 2962,
      "ç§ĳ": 2963,
      "Ġhig": 2964,
      "éĢł": 2965,
      "una": 2966,
      "Ġ&&": 2967,
      "Ġentre": 2968,
      "Ġpob": 2969,
      "Ġsays": 2970,
      "Ġseveral": 2971,
      "Sh": 2972,
      "Ġbreak": 2973,
      "Set": 2974,
      "aim": 2975,
      "Ġsimple": 2976,
      "Ġcannot": 2977,
      "iques": 2978,
      "times": 2979,
      "que": 2980,
      "empt": 2981,
      "ĠĠĠĠĠĠĠĠĠĠĠĠ": 2982,
      "Ġredu": 2983,
      "Ġmeet": 2984,
      "Ġcode": 2985,
      "].": 2986,
      "Ġdest": 2987,
      "Ġrequire": 2988,
      "æ±Ĥ": 2989,
      "////": 2990,
      "ĠWith": 2991,
      "ams": 2992,
      "Ġnecess": 2993,
      "Ġaddress": 2994,
      "Ġcas": 2995,
      "åħĪ": 2996,
      "Ġheart": 2997,
      "Ġdiv": 2998,
      "Ġfut": 2999,
      "Ġwhole": 3000,
      "}$,": 3001,
      "ump": 3002,
      "ocus": 3003,
      "uration": 3004,
      "aint": 3005,
      "init": 3006,
      "cle": 3007,
      "Ġdeterm": 3008,
      "nu": 3009,
      "å±±": 3010,
      "Ġnothing": 3011,
      "è®°": 3012,
      "}$.": 3013,
      "ĉ//": 3014,
      "Im": 3015,
      "ison": 3016,
      "éĢī": 3017,
      "idual": 3018,
      "CO": 3019,
      "bu": 3020,
      "Ġimpro": 3021,
      "Ġchildren": 3022,
      "ĠChrist": 3023,
      "è®¤": 3024,
      "Ġ?": 3025,
      "ĠÑģÐ¸": 3026,
      "size": 3027,
      "Ġ%": 3028,
      "Ġonline": 3029,
      "tes": 3030,
      "arning": 3031,
      "æ¼": 3032,
      "!!": 3033,
      "Ġpage": 3034,
      "ury": 3035,
      "rodu": 3036,
      "Ð¿Ð°": 3037,
      "Ġspecial": 3038,
      "Ġvalues": 3039,
      "å¸Ī": 3040,
      "å¯¼": 3041,
      "Ġcolor": 3042,
      "ene": 3043,
      "Ġmax": 3044,
      "ailed": 3045,
      "Ġarea": 3046,
      "æĬ¥": 3047,
      "åŁİ": 3048,
      "arr": 3049,
      "è°ĥ": 3050,
      "eqref": 3051,
      "Ġspecific": 3052,
      "ĠPer": 3053,
      "Ġmoney": 3054,
      "}(\\": 3055,
      "åŀĭ": 3056,
      "ients": 3057,
      "èİ": 3058,
      "Ġface": 3059,
      "Ġcontinu": 3060,
      "Ġtook": 3061,
      "è§Ħ": 3062,
      "oud": 3063,
      "Ġcommon": 3064,
      "åĮ»": 3065,
      "Ġsound": 3066,
      "xi": 3067,
      "å¢ŀ": 3068,
      "ĠBr": 3069,
      "Ġstop": 3070,
      "Ġlearn": 3071,
      "Ġothers": 3072,
      "Ġwords": 3073,
      "Ġred": 3074,
      "Ġtalk": 3075,
      "ising": 3076,
      "åĶ": 3077,
      "Ġsense": 3078,
      "Ġcreat": 3079,
      "Ġbound": 3080,
      "sm": 3081,
      "è¯Ŀ": 3082,
      "Ġsimilar": 3083,
      "Ġpel": 3084,
      "Ġcountry": 3085,
      "anks": 3086,
      "ball": 3087,
      "Ġpath": 3088,
      "ç«ĭ": 3089,
      "Ġsugg": 3090,
      "å®Į": 3091,
      "ä»Ģ": 3092,
      "Ġcontent": 3093,
      "æº": 3094,
      "çº§": 3095,
      "èĮ": 3096,
      "ung": 3097,
      "ino": 3098,
      "rix": 3099,
      "Ð¿Ð¸": 3100,
      "icial": 3101,
      "Ġrequest": 3102,
      "è´¹": 3103,
      "åĽłä¸º": 3104,
      "Ġabs": 3105,
      "ĠSc": 3106,
      "imal": 3107,
      "Ð·Ð°": 3108,
      "Refer": 3109,
      "Is": 3110,
      "Ġhowever": 3111,
      "Ġjob": 3112,
      "mat": 3113,
      "Ġland": 3114,
      "å½±": 3115,
      "ending": 3116,
      "æĹ¶åĢĻ": 3117,
      "Get": 3118,
      "Ġdom": 3119,
      ".)": 3120,
      "Ġalg": 3121,
      "une": 3122,
      "Ġbody": 3123,
      "ĠÐ¿ÑĢÐ¸": 3124,
      "Ġdescrib": 3125,
      "ĠPar": 3126,
      "åıĪ": 3127,
      "Ġsuggest": 3128,
      "å®¹": 3129,
      "Ġsource": 3130,
      "ÑģÑĤÐ¾": 3131,
      "ĠDo": 3132,
      "Ġvolt": 3133,
      "atural": 3134,
      "color": 3135,
      "resh": 3136,
      "ĠTe": 3137,
      "ä¼ł": 3138,
      "So": 3139,
      "é¥": 3140,
      "èģĶ": 3141,
      "ĠQu": 3142,
      "ension": 3143,
      "Ġmajor": 3144,
      "éĺŁ": 3145,
      "å¦Ĥæŀľ": 3146,
      "partial": 3147,
      "Ġquite": 3148,
      "ä»Ģä¹Ī": 3149,
      "View": 3150,
      "æķĪ": 3151,
      "åįĹ": 3152,
      "ÑģÐµ": 3153,
      "ained": 3154,
      "ä¸ĵ": 3155,
      "AS": 3156,
      "Ġobserv": 3157,
      "æķ´": 3158,
      "ĠHowever": 3159,
      "æ¸ħ": 3160,
      "omega": 3161,
      "fty": 3162,
      "from": 3163,
      "Ġenergy": 3164,
      "Ġesc": 3165,
      "agement": 3166,
      "æłĩ": 3167,
      "ä¸ĸ": 3168,
      "Ġrange": 3169,
      "\";": 3170,
      "Or": 3171,
      "Ġtw": 3172,
      "èħ": 3173,
      "iction": 3174,
      "çĹħ": 3175,
      "ured": 3176,
      "Ġhimself": 3177,
      "mand": 3178,
      "room": 3179,
      "ĠĠĠĠĠĠĠĠĠĠ": 3180,
      "Ð»Ñı": 3181,
      "Ġcamp": 3182,
      "è¾¾": 3183,
      "irm": 3184,
      "Ġknown": 3185,
      "omet": 3186,
      "æĪĺ": 3187,
      "ued": 3188,
      "æĹ¶éĹ´": 3189,
      "Ġmakes": 3190,
      "Ġconc": 3191,
      "ences": 3192,
      "));": 3193,
      "Ġfiles": 3194,
      "çħ": 3195,
      "position": 3196,
      "rows": 3197,
      "ç¤º": 3198,
      "Ġcharacter": 3199,
      "fully": 3200,
      "ä»ĸä»¬": 3201,
      "ç»Ł": 3202,
      "Ġwhether": 3203,
      "Ġpod": 3204,
      "light": 3205,
      "AD": 3206,
      "Ġair": 3207,
      "Ġbeaut": 3208,
      "Ap": 3209,
      "Se": 3210,
      "èĬ±": 3211,
      "è¯¥": 3212,
      "åĪĽ": 3213,
      "cm": 3214,
      "['": 3215,
      "ba": 3216,
      "Ġdoing": 3217,
      "Ġespec": 3218,
      "èĬĤ": 3219,
      "With": 3220,
      "Ġindiv": 3221,
      "Ġhalf": 3222,
      "Ġtotal": 3223,
      "Ġperfect": 3224,
      "rt": 3225,
      "icro": 3226,
      "è¿ĳ": 3227,
      "ÑĬÑĤ": 3228,
      "icient": 3229,
      "Ġvisit": 3230,
      "UT": 3231,
      "IM": 3232,
      "No": 3233,
      "book": 3234,
      "Ġals": 3235,
      "Wh": 3236,
      "oll": 3237,
      "Ġaquest": 3238,
      "aged": 3239,
      "åı°": 3240,
      "Ð¡": 3241,
      "nection": 3242,
      "ä¼ģ": 3243,
      "Ġeasy": 3244,
      "Ġvi": 3245,
      "Ġacross": 3246,
      "ival": 3247,
      "Ġservices": 3248,
      "åĩł": 3249,
      "ches": 3250,
      "Ġstre": 3251,
      "Ġbase": 3252,
      "Ġbar": 3253,
      "ĠÐł": 3254,
      "ÐŁ": 3255,
      "Ġear": 3256,
      "Ġidea": 3257,
      "è¯ģ": 3258,
      "Ð³ÑĢÐ°": 3259,
      "iar": 3260,
      "Ġbecome": 3261,
      "which": 3262,
      "aced": 3263,
      "Ġamong": 3264,
      "ols": 3265,
      "Ġdue": 3266,
      "joy": 3267,
      "Ġrunning": 3268,
      "æĪ¿": 3269,
      "Ġanything": 3270,
      "Ġmeasure": 3271,
      "Ġrather": 3272,
      "æ¶Ī": 3273,
      "path": 3274,
      "ĠCent": 3275,
      "utes": 3276,
      "Ġneeds": 3277,
      "ilt": 3278,
      "çļĦäºº": 3279,
      "field": 3280,
      "quad": 3281,
      "Ġflo": 3282,
      "ĠString": 3283,
      "Ġcaus": 3284,
      "Ġprincip": 3285,
      "åĦ": 3286,
      "When": 3287,
      "Ġtrad": 3288,
      "Ġfav": 3289,
      "é¡¹": 3290,
      "Ġfill": 3291,
      "Ġden": 3292,
      "Ġfa": 3293,
      "ney": 3294,
      "ÑĢÐ¸Ñı": 3295,
      "Ind": 3296,
      "Mod": 3297,
      "çĻ½": 3298,
      "Ġposition": 3299,
      "ç²¾": 3300,
      "ç¤¾": 3301,
      "Ġsite": 3302,
      "Ġdiscuss": 3303,
      "space": 3304,
      "å½¢": 3305,
      "plement": 3306,
      "Ġqual": 3307,
      "Ġalmost": 3308,
      "Ġ$(": 3309,
      "è¾ĥ": 3310,
      "mm": 3311,
      "Ġlos": 3312,
      "Ġload": 3313,
      "ä¹¦": 3314,
      "All": 3315,
      "rs": 3316,
      "tilde": 3317,
      "|\\": 3318,
      "Exception": 3319,
      "Ġdidn": 3320,
      "ĠÐĵ": 3321,
      "Ġpaper": 3322,
      "UR": 3323,
      "Ġimage": 3324,
      "ita": 3325,
      "ĠJohn": 3326,
      "Ġpress": 3327,
      "Ġstatic": 3328,
      "ÑĨÐ¸Ñı": 3329,
      "infty": 3330,
      "è§Ĥ": 3331,
      "Ġtamb": 3332,
      "Ġrad": 3333,
      "ief": 3334,
      "cci": 3335,
      "Ġnetwork": 3336,
      "ze": 3337,
      "ING": 3338,
      "AB": 3339,
      "æĮĩ": 3340,
      "Ð¶Ðµ": 3341,
      "Ġimp": 3342,
      "ural": 3343,
      "è§ģ": 3344,
      "Ġnear": 3345,
      "Ġsuff": 3346,
      "ç©º": 3347,
      "mary": 3348,
      "imum": 3349,
      "Ġann": 3350,
      "lex": 3351,
      "å®ĥ": 3352,
      "çĲĥ": 3353,
      "Ġseems": 3354,
      "Ð¼Ð¾": 3355,
      "rew": 3356,
      "åıĭ": 3357,
      "Ġmaterial": 3358,
      "Ġcontin": 3359,
      "çĭ": 3360,
      "function": 3361,
      "èĢĥ": 3362,
      "Ġdefault": 3363,
      "though": 3364,
      "Ġsearch": 3365,
      "åıĳå±ķ": 3366,
      "Ġ/**": 3367,
      "æ¸¸": 3368,
      "åĦ¿": 3369,
      "Ġactually": 3370,
      "rown": 3371,
      "see": 3372,
      "Ġhom": 3373,
      "imate": 3374,
      "Ġcorres": 3375,
      "ties": 3376,
      "Ġrecord": 3377,
      "Ġwebs": 3378,
      "Qu": 3379,
      "ĠÑĢÐµ": 3380,
      "åĽĽ": 3381,
      "èµ°": 3382,
      "ara": 3383,
      "odes": 3384,
      "igure": 3385,
      "è¶Ĭ": 3386,
      "Ġetc": 3387,
      "åħī": 3388,
      "Int": 3389,
      "bit": 3390,
      "pen": 3391,
      "sim": 3392,
      "http": 3393,
      "æ³¨": 3394,
      "osp": 3395,
      "ĠIN": 3396,
      "åŃ©åŃĲ": 3397,
      "Ġstyle": 3398,
      "Ġquick": 3399,
      "è§ī": 3400,
      "isf": 3401,
      "urant": 3402,
      "rain": 3403,
      "CH": 3404,
      "æ£": 3405,
      "obal": 3406,
      "icy": 3407,
      "ÑģÑĤÐ²Ð¾": 3408,
      "Ġtarget": 3409,
      "ĠThese": 3410,
      "å¿«": 3411,
      "Ġdocument": 3412,
      "icult": 3413,
      "');": 3414,
      "Ġclose": 3415,
      "ators": 3416,
      "ike": 3417,
      "Ġsolution": 3418,
      "Ġground": 3419,
      "ĉreturn": 3420,
      "è¿Ľè¡Į": 3421,
      "asc": 3422,
      "Ġcut": 3423,
      "Ġfund": 3424,
      "....": 3425,
      "æ²»": 3426,
      "Ġfood": 3427,
      "Ġneg": 3428,
      "eb": 3429,
      "Ġrequired": 3430,
      "rary": 3431,
      "Ð»ÐµÐ´": 3432,
      "Ġinclude": 3433,
      "æĺĵ": 3434,
      "Error": 3435,
      "icon": 3436,
      "Ġstudy": 3437,
      "Ġblack": 3438,
      "Ġaction": 3439,
      "èĤ¡": 3440,
      "gu": 3441,
      "Ġgetting": 3442,
      "Ġtaken": 3443,
      "Ġsoon": 3444,
      "Delta": 3445,
      "lim": 3446,
      "çĬ": 3447,
      "éĹ®é¢ĺ": 3448,
      "ç»Ħ": 3449,
      "Ġcomes": 3450,
      "Ġindividual": 3451,
      "Ġoptions": 3452,
      "().": 3453,
      "ervice": 3454,
      "Object": 3455,
      "æĪ·": 3456,
      "ires": 3457,
      "Ġstep": 3458,
      "Ġgir": 3459,
      "Ġflow": 3460,
      "ibility": 3461,
      "Ġconfig": 3462,
      "Ġperiod": 3463,
      "Ġtro": 3464,
      "ÑĩÐ¸": 3465,
      "è§Ĩ": 3466,
      "Ġfall": 3467,
      "iful": 3468,
      "åĬŁ": 3469,
      "Ġlater": 3470,
      "Ġbuy": 3471,
      "æİ¨": 3472,
      "ĠCont": 3473,
      "ĠOne": 3474,
      "åħ·": 3475,
      "fl": 3476,
      "Ġemploy": 3477,
      "Ġoption": 3478,
      "èµĽ": 3479,
      "åĮĹ": 3480,
      "elt": 3481,
      "clus": 3482,
      "atus": 3483,
      "isk": 3484,
      "Ġ!=": 3485,
      "ached": 3486,
      "Ġpoints": 3487,
      "Ġbegin": 3488,
      "Ġhab": 3489,
      "ruction": 3490,
      "js": 3491,
      "ram": 3492,
      "ternal": 3493,
      "location": 3494,
      "Ð±Ð¾": 3495,
      "aving": 3496,
      "raf": 3497,
      "QL": 3498,
      "ega": 3499,
      "æĿ¡": 3500,
      "lement": 3501,
      "Ġmatter": 3502,
      "ä¸Ķ": 3503,
      "ĠSer": 3504,
      "Ġsaw": 3505,
      "abase": 3506,
      "Ġtrying": 3507,
      "Ġexact": 3508,
      "ceed": 3509,
      "Ġanswer": 3510,
      "nb": 3511,
      "Ġquality": 3512,
      "inary": 3513,
      "idd": 3514,
      "ÑīÐ°": 3515,
      "Def": 3516,
      "ĠEnglish": 3517,
      "rup": 3518,
      "ribute": 3519,
      "æĶ¹": 3520,
      "down": 3521,
      "oke": 3522,
      "ribution": 3523,
      "åĲĥ": 3524,
      "Add": 3525,
      "ĠAss": 3526,
      "Ġresp": 3527,
      "url": 3528,
      "selves": 3529,
      "Ġlive": 3530,
      "ĠDes": 3531,
      "æĬķ": 3532,
      "Test": 3533,
      "Ġartic": 3534,
      "Ġshows": 3535,
      "åıĸ": 3536,
      "éļ¾": 3537,
      "gress": 3538,
      "$$": 3539,
      "å¤ª": 3540,
      "ged": 3541,
      "Ġtold": 3542,
      "unch": 3543,
      "ĠÑĢÐ°Ð·": 3544,
      "Ġeyes": 3545,
      "index": 3546,
      "ç±»": 3547,
      "Ġcompon": 3548,
      "tings": 3549,
      "Ġhot": 3550,
      "æ·±": 3551,
      "empl": 3552,
      "ĠÐ»": 3553,
      "ironment": 3554,
      "aff": 3555,
      "Ġindic": 3556,
      "lev": 3557,
      "cho": 3558,
      "ster": 3559,
      "cdot": 3560,
      "olution": 3561,
      "ving": 3562,
      "ĠBy": 3563,
      "Ġ...": 3564,
      "ends": 3565,
      "Ġlarg": 3566,
      "At": 3567,
      "æŃ¥": 3568,
      "Ġfac": 3569,
      "verage": 3570,
      "Ġtoday": 3571,
      "Ġfurther": 3572,
      "ç¡®": 3573,
      "Ġtreat": 3574,
      "Ġder": 3575,
      "ND": 3576,
      "é£Ł": 3577,
      "Ġsepar": 3578,
      "public": 3579,
      "itted": 3580,
      "Ġexec": 3581,
      "lay": 3582,
      "Ġphys": 3583,
      "orem": 3584,
      "ĠEst": 3585,
      "ç¥ŀ": 3586,
      "Ġproperty": 3587,
      "_,": 3588,
      "####": 3589,
      "Ġprevious": 3590,
      "Ġpret": 3591,
      "Ġmap": 3592,
      "ä¸įæĺ¯": 3593,
      "Ġorg": 3594,
      "å¤ĩ": 3595,
      "anguage": 3596,
      "ns": 3597,
      "input": 3598,
      "å¾Īå¤ļ": 3599,
      "link": 3600,
      "ĠVal": 3601,
      "Ġhor": 3602,
      "ario": 3603,
      "ĠÐ³Ð¾Ð´Ð¸": 3604,
      "Ġsubject": 3605,
      "Ġmil": 3606,
      "tab": 3607,
      "å§ĭ": 3608,
      "æ¬¾": 3609,
      "Ġmiss": 3610,
      "è½¬": 3611,
      "æĳ": 3612,
      "Ġsocial": 3613,
      "ä¼ģä¸ļ": 3614,
      "Ġinstead": 3615,
      "Ġissue": 3616,
      "urch": 3617,
      "çķĮ": 3618,
      "igu": 3619,
      "ux": 3620,
      "oin": 3621,
      "èĤ²": 3622,
      "ottom": 3623,
      "comp": 3624,
      "Ġassoci": 3625,
      "abor": 3626,
      "ando": 3627,
      "uth": 3628,
      "idence": 3629,
      "ony": 3630,
      "user": 3631,
      "Ġoriginal": 3632,
      "ograph": 3633,
      "Ġbelieve": 3634,
      "ä½Ĩæĺ¯": 3635,
      "Ġlink": 3636,
      "Ġasked": 3637,
      "ĠMay": 3638,
      "å·²ç»ı": 3639,
      "Ġprint": 3640,
      "åĳ¨": 3641,
      "itten": 3642,
      "é¢Ĩ": 3643,
      "ells": 3644,
      "iding": 3645,
      "abled": 3646,
      "Not": 3647,
      "medi": 3648,
      "æ¹": 3649,
      "umer": 3650,
      "oon": 3651,
      "ĠSystem": 3652,
      "å¸Ĥåľº": 3653,
      "ĠÑĤÐ¾": 3654,
      "Ġhope": 3655,
      "è¿Ļæł·": 3656,
      "Ġtried": 3657,
      "Ġ///": 3658,
      "ĠGo": 3659,
      "US": 3660,
      "ĠInst": 3661,
      "Ġclear": 3662,
      "Ġpref": 3663,
      "pack": 3664,
      "ÑĢÑĬ": 3665,
      "IG": 3666,
      "Ġwalk": 3667,
      "uments": 3668,
      "}[": 3669,
      "Ġtri": 3670,
      "ä½ķ": 3671,
      "åįİ": 3672,
      "My": 3673,
      "Ġsil": 3674,
      "Ġpersonal": 3675,
      "ops": 3676,
      "Class": 3677,
      "isc": 3678,
      "ĠÐ¿ÑĢÐµÐ·": 3679,
      "Ġfuture": 3680,
      "OM": 3681,
      "Ġwhite": 3682,
      "sup": 3683,
      "å¼ł": 3684,
      "Ġoffer": 3685,
      "èĲ¥": 3686,
      "']": 3687,
      "ĠNot": 3688,
      "æħ": 3689,
      "FF": 3690,
      "Ġpri": 3691,
      "Ġindust": 3692,
      "Ġstory": 3693,
      "Ġeverything": 3694,
      "\"></": 3695,
      "iu": 3696,
      "Ġhost": 3697,
      "Ġsignific": 3698,
      "Ġelement": 3699,
      "ĠChe": 3700,
      "Ġdeg": 3701,
      "ä¼ĺ": 3702,
      "æ¢": 3703,
      "Par": 3704,
      "æīĢä»¥": 3705,
      "Ġenjoy": 3706,
      "Ġshown": 3707,
      "Ġwrite": 3708,
      "Ġserver": 3709,
      "Ġdevice": 3710,
      "åĩĨ": 3711,
      "raft": 3712,
      "Ġpara": 3713,
      "æģ¯": 3714,
      "());": 3715,
      "ä¹ł": 3716,
      "Ġsens": 3717,
      "Ġapplication": 3718,
      "Ġsobre": 3719,
      "ĠCal": 3720,
      "utions": 3721,
      "ogn": 3722,
      "ula": 3723,
      "Ġestab": 3724,
      "eqn": 3725,
      "Text": 3726,
      "ĠInt": 3727,
      "Ġcontact": 3728,
      "ores": 3729,
      "Ġill": 3730,
      "å¸ĥ": 3731,
      "å¹¿": 3732,
      "Ġcontext": 3733,
      "Ġsort": 3734,
      "ĠSte": 3735,
      "rid": 3736,
      "istic": 3737,
      "ags": 3738,
      "åħ±": 3739,
      "wise": 3740,
      "men": 3741,
      "inux": 3742,
      "Ð°Ð»": 3743,
      "Ġamount": 3744,
      "conom": 3745,
      "Ġadded": 3746,
      "éĢŁ": 3747,
      "Ġprobably": 3748,
      "çĥŃ": 3749,
      "Ġpict": 3750,
      "ĠSup": 3751,
      "ians": 3752,
      "Ġspeak": 3753,
      "}}\\": 3754,
      "Ġcorrespond": 3755,
      "Ġpa": 3756,
      "ä¹Ĳ": 3757,
      "Ġtitle": 3758,
      "pace": 3759,
      "åĬŀ": 3760,
      "ledge": 3761,
      "Ġindex": 3762,
      "ĠEd": 3763,
      "Ġvia": 3764,
      "nbsp": 3765,
      "aves": 3766,
      "ĠÐºÐ°ÑĤÐ¾": 3767,
      "Ġant": 3768,
      "Ġterms": 3769,
      "ä¹Łæĺ¯": 3770,
      "éĽĨ": 3771,
      "Ġpobl": 3772,
      "ites": 3773,
      "ÐĴ": 3774,
      "åħ»": 3775,
      "éħį": 3776,
      "ĠÐŀ": 3777,
      "Ġvoltage": 3778,
      "Ġweb": 3779,
      "Ġcontain": 3780,
      "æĶ¯": 3781,
      "éŁ": 3782,
      "Ġreview": 3783,
      "point": 3784,
      "Ġens": 3785,
      "fra": 3786,
      "Ġcity": 3787,
      "ands": 3788,
      "Ġpred": 3789,
      "Ġsi": 3790,
      "Ġperformance": 3791,
      "Ġbring": 3792,
      "ha": 3793,
      "Ġmach": 3794,
      "asing": 3795,
      "Ġhavia": 3796,
      "Ġdrive": 3797,
      "Ġdisplay": 3798,
      "Ġexam": 3799,
      "rel": 3800,
      "ysis": 3801,
      "Key": 3802,
      "Ġess": 3803,
      "Ġfeatures": 3804,
      "Ġstarted": 3805,
      "Ġbad": 3806,
      "Ġhuman": 3807,
      "éĺ²": 3808,
      "rite": 3809,
      "Ġfocus": 3810,
      "mega": 3811,
      "è£ħ": 3812,
      "haps": 3813,
      "åĨ³": 3814,
      "Ġbenef": 3815,
      "ustr": 3816,
      "Ġprop": 3817,
      "åıį": 3818,
      "Ð²Ð°Ð½Ðµ": 3819,
      "board": 3820,
      "Ġhours": 3821,
      "Ġdeal": 3822,
      "Ġcolumn": 3823,
      "ĠGe": 3824,
      "Ġwait": 3825,
      "rec": 3826,
      "åĮħ": 3827,
      "Ġfrequ": 3828,
      ")$.": 3829,
      "Ð³Ð¸": 3830,
      "uf": 3831,
      "lished": 3832,
      "Ġpor": 3833,
      "ĠÐĺ": 3834,
      "ç»Ń": 3835,
      "ULL": 3836,
      "Ġpie": 3837,
      "å¤į": 3838,
      "Ġprofess": 3839,
      "Ġstudents": 3840,
      "Ð²Ð°ÑĤ": 3841,
      "ĠÃ": 3842,
      "Ġple": 3843,
      "Ġwomen": 3844,
      "Ġintegr": 3845,
      "ä½İ": 3846,
      "sl": 3847,
      "ĠHis": 3848,
      "Ġintrodu": 3849,
      "Ġblock": 3850,
      "çĶŁæ´»": 3851,
      "åĥ": 3852,
      "Ġbed": 3853,
      "æł¡": 3854,
      "Ġauthor": 3855,
      "Man": 3856,
      "ellow": 3857,
      "å®¢": 3858,
      "Ġinvol": 3859,
      "Ġwonder": 3860,
      "Ġmol": 3861,
      "eff": 3862,
      "Ġcases": 3863,
      "Ð¿Ðµ": 3864,
      "Ġfront": 3865,
      "ĠCor": 3866,
      "PE": 3867,
      "ports": 3868,
      "Ġarray": 3869,
      "ĠCo": 3870,
      "perty": 3871,
      "Ġhigher": 3872,
      "bed": 3873,
      "æ¨": 3874,
      "Ġactiv": 3875,
      "Ġsem": 3876,
      "ection": 3877,
      "Ġsatisf": 3878,
      "å±Ģ": 3879,
      "};": 3880,
      "çª": 3881,
      "Ġparent": 3882,
      "åı¯èĥ½": 3883,
      "è¿ĺæĺ¯": 3884,
      "Ġcrit": 3885,
      "Ġwin": 3886,
      "Requ": 3887,
      "Ġautom": 3888,
      "é©¬": 3889,
      "Ġresist": 3890,
      "itting": 3891,
      "Ġnatural": 3892,
      "File": 3893,
      "olds": 3894,
      "åĢ¼": 3895,
      "Ġsection": 3896,
      "lia": 3897,
      "Ġproducts": 3898,
      "Ġsomeone": 3899,
      "Ġaccept": 3900,
      "oper": 3901,
      "âĶ": 3902,
      "Ġquant": 3903,
      "ĠFl": 3904,
      "urope": 3905,
      "æĿĥ": 3906,
      "xim": 3907,
      "èı": 3908,
      "ouch": 3909,
      "TER": 3910,
      "Ġdire": 3911,
      "Ġentire": 3912,
      "Time": 3913,
      "Ġvideo": 3914,
      "Ġdifficult": 3915,
      "ii": 3916,
      "TR": 3917,
      "æľª": 3918,
      "iple": 3919,
      "Ġclean": 3920,
      "Ġwebsite": 3921,
      "group": 3922,
      "Ġearly": 3923,
      "æĲ": 3924,
      "Ġsimply": 3925,
      "enn": 3926,
      "Ġlower": 3927,
      "çīĩ": 3928,
      "oad": 3929,
      "roller": 3930,
      "æºĲ": 3931,
      "å®Ŀ": 3932,
      "\\,": 3933,
      "Ġrate": 3934,
      "ounc": 3935,
      "ĠÐĽ": 3936,
      "åĪĻ": 3937,
      "Ġcomplete": 3938,
      "ĠMed": 3939,
      "Ġinstance": 3940,
      "Ġfou": 3941,
      "LO": 3942,
      "ĠÐ²ÑĬ": 3943,
      "df": 3944,
      "Ġlimit": 3945,
      ":\"": 3946,
      "Ġvarious": 3947,
      "æĺ¾": 3948,
      "Ġarch": 3949,
      "Ġtaking": 3950,
      "åĬ¿": 3951,
      "çº¢": 3952,
      "++": 3953,
      "nav": 3954,
      "urg": 3955,
      "Ġapproach": 3956,
      "ilities": 3957,
      "Ġcalcul": 3958,
      "Ġsche": 3959,
      "ĠLet": 3960,
      "LA": 3961,
      "Ġhon": 3962,
      "è¶ħ": 3963,
      "Ġitself": 3964,
      "Ġmessage": 3965,
      "çİ¯": 3966,
      "ä¾¿": 3967,
      "Ġpotential": 3968,
      "mar": 3969,
      "ui": 3970,
      "å¨": 3971,
      "https": 3972,
      "Ġlength": 3973,
      "Ð±Ð¸": 3974,
      "è®º": 3975,
      "Ġappear": 3976,
      "Ġresearch": 3977,
      "max": 3978,
      "Ġupdate": 3979,
      "Omega": 3980,
      "åĨµ": 3981,
      "orld": 3982,
      "éĻ¤": 3983,
      "Ġinstalled": 3984,
      "='": 3985,
      "Ġcult": 3986,
      "yl": 3987,
      "was": 3988,
      "åıĤ": 3989,
      "fer": 3990,
      "çľģ": 3991,
      "æĴ": 3992,
      "Ġ/>": 3993,
      "ĠReg": 3994,
      "Ġcard": 3995,
      "çİĭ": 3996,
      "Ġfriends": 3997,
      "eral": 3998,
      "åįĩ": 3999,
      "Ġmembers": 4000,
      "iet": 4001,
      "æļ": 4002,
      "Ġutil": 4003,
      "ä¼Ĺ": 4004,
      "sequ": 4005,
      "inition": 4006,
      "åį³": 4007,
      "ATE": 4008,
      "ÑĥÑĢ": 4009,
      "ening": 4010,
      "itude": 4011,
      "éľĢè¦ģ": 4012,
      "Inst": 4013,
      "ender": 4014,
      "Ġcreated": 4015,
      "mission": 4016,
      "Ġcompet": 4017,
      "like": 4018,
      "çłĶ": 4019,
      "map": 4020,
      "oice": 4021,
      "ÑĬÐ»Ð³Ð°": 4022,
      "æĢģ": 4023,
      "!--": 4024,
      "error": 4025,
      "That": 4026,
      "py": 4027,
      "node": 4028,
      "Ġeduc": 4029,
      "Ġrecomm": 4030,
      "åĨĽ": 4031,
      "Ġdownload": 4032,
      "andom": 4033,
      "lt": 4034,
      "Ġfine": 4035,
      "ij": 4036,
      "åĬ©": 4037,
      "æł¹": 4038,
      "epsilon": 4039,
      "Ġang": 4040,
      "äºĶ": 4041,
      "ĠĠĠĠĠĠĠĠĠĠĠĠĠĠĠĠĠĠĠĠĠĠĠĠĠĠĠ": 4042,
      "Ġfire": 4043,
      "From": 4044,
      "å¹²": 4045,
      "ync": 4046,
      "Ġfive": 4047,
      "Ġpers": 4048,
      "dom": 4049,
      "ĠÑĤÐµ": 4050,
      "textbf": 4051,
      "capt": 4052,
      "ena": 4053,
      "Ġhands": 4054,
      "overed": 4055,
      "ÑīÐµ": 4056,
      "Ġnormal": 4057,
      "ĠUniversity": 4058,
      "inks": 4059,
      "ĠÐ´Ðµ": 4060,
      "Ġexpected": 4061,
      "____": 4062,
      "Ġminutes": 4063,
      "}_{\\": 4064,
      "amed": 4065,
      "Ġplease": 4066,
      "Ġneeded": 4067,
      "ä¾Ľ": 4068,
      "';": 4069,
      "å¼ķ": 4070,
      "Ġwindow": 4071,
      "åĳĬ": 4072,
      "ÑģÐ°": 4073,
      "ĠSant": 4074,
      "raphics": 4075,
      "æľįåĬ¡": 4076,
      "Ġseries": 4077,
      "Ġround": 4078,
      "mber": 4079,
      "Sc": 4080,
      "Ġconstant": 4081,
      "IP": 4082,
      "Ġsal": 4083,
      "Ġago": 4084,
      "Ġbox": 4085,
      "ĠIm": 4086,
      "Ġhttp": 4087,
      "Ġprotect": 4088,
      "Ġge": 4089,
      "é¦ĸ": 4090,
      "uly": 4091,
      "length": 4092,
      "æŁ¥": 4093,
      "(),": 4094,
      "ises": 4095,
      "Ġmodels": 4096,
      "äººçļĦ": 4097,
      "Ġcondition": 4098,
      "Ġaud": 4099,
      "Ġsud": 4100,
      "Ġheard": 4101,
      "leep": 4102,
      "Ġcompan": 4103,
      "ils": 4104,
      "astic": 4105,
      "èĩªå·±çļĦ": 4106,
      "Ġdrop": 4107,
      "come": 4108,
      "Ġste": 4109,
      "åĥı": 4110,
      "uns": 4111,
      "Of": 4112,
      "Ġprice": 4113,
      "Ġmount": 4114,
      "åĽ¾": 4115,
      "hel": 4116,
      "Ġthus": 4117,
      "æĢĿ": 4118,
      "åĽ¢": 4119,
      "Ġcommunity": 4120,
      "ĠAmerican": 4121,
      "çİ°åľ¨": 4122,
      "æ¡Ī": 4123,
      "Ad": 4124,
      "ÑģÐºÐ¾": 4125,
      "éĿŀå¸¸": 4126,
      "Ġshare": 4127,
      "ĠAfter": 4128,
      "anced": 4129,
      "lla": 4130,
      "airs": 4131,
      "Ġesp": 4132,
      "Ġlooked": 4133,
      "print": 4134,
      "Ġlikely": 4135,
      "config": 4136,
      "Ġsoftware": 4137,
      "ken": 4138,
      "Ġregard": 4139,
      "Ġbackground": 4140,
      "ĠÑħ": 4141,
      "æ»¡": 4142,
      "Ġmother": 4143,
      "Ġboot": 4144,
      "å¤§å®¶": 4145,
      "eneral": 4146,
      "Ġscreen": 4147,
      "éĥ½æĺ¯": 4148,
      "è¶³": 4149,
      "Ġgraph": 4150,
      "Event": 4151,
      "Ġstay": 4152,
      "www": 4153,
      "çı": 4154,
      "Ġextra": 4155,
      "ĠMac": 4156,
      "æĿĳ": 4157,
      "Ġrelations": 4158,
      "Ġfer": 4159,
      "Let": 4160,
      "':": 4161,
      "orith": 4162,
      "ging": 4163,
      "ota": 4164,
      "Ġdim": 4165,
      "bin": 4166,
      "Ġdoor": 4167,
      "plied": 4168,
      "Ġfeature": 4169,
      "oken": 4170,
      "Ġbeautiful": 4171,
      "Ġlonger": 4172,
      "ĠIntern": 4173,
      "Ġmatch": 4174,
      "under": 4175,
      "çľ¼": 4176,
      "ros": 4177,
      "psilon": 4178,
      "psi": 4179,
      "Ġdig": 4180,
      "å¿ħ": 4181,
      "Ġstandard": 4182,
      "Ġchanges": 4183,
      "Ġtrack": 4184,
      "db": 4185,
      "Ġhol": 4186,
      "just": 4187,
      "Ġtraining": 4188,
      "lock": 4189,
      "çİĩ": 4190,
      "oun": 4191,
      "elling": 4192,
      "ograf": 4193,
      "Ġproblems": 4194,
      "ĠPol": 4195,
      "æĸĻ": 4196,
      "èĩ´": 4197,
      "osa": 4198,
      "Ġopport": 4199,
      "æ®µ": 4200,
      "ĠNow": 4201,
      "ĠAb": 4202,
      "rought": 4203,
      "istes": 4204,
      "Ġdevelopment": 4205,
      "ya": 4206,
      "Ġtemper": 4207,
      "æİĴ": 4208,
      "Ġfather": 4209,
      "ama": 4210,
      "çļĦæĹ¶åĢĻ": 4211,
      "Ġfins": 4212,
      "Ġprec": 4213,
      "ENT": 4214,
      "you": 4215,
      "Ġvers": 4216,
      "çħ§": 4217,
      "Ġdefined": 4218,
      "Ġband": 4219,
      "ä¹°": 4220,
      "sqrt": 4221,
      "ä½ı": 4222,
      "Ġmonths": 4223,
      "Ġparticip": 4224,
      "ä»ħ": 4225,
      "Ġach": 4226,
      ")$,": 4227,
      "ĠÐ¥": 4228,
      "å¾Ģ": 4229,
      "curity": 4230,
      "Ġdos": 4231,
      "ĠWill": 4232,
      "ĠMe": 4233,
      "Ġcross": 4234,
      "irtual": 4235,
      "Ġmusic": 4236,
      ".</": 4237,
      "Ġful": 4238,
      "Ġwall": 4239,
      "å©": 4240,
      "Ġlat": 4241,
      "ÑĢÐ°ÑĤ": 4242,
      "çģ«": 4243,
      "è¾¹": 4244,
      "Ġpretty": 4245,
      "ĉĉĉĉĉ": 4246,
      "Ġwoman": 4247,
      "çĮ": 4248,
      "PI": 4249,
      "Ġdecl": 4250,
      "count": 4251,
      "Ġregular": 4252,
      "aging": 4253,
      "Ġsystems": 4254,
      "''": 4255,
      "Ġpan": 4256,
      "Ġloss": 4257,
      "nia": 4258,
      "ynam": 4259,
      "result": 4260,
      "^*": 4261,
      "åı·": 4262,
      "è¯Ĩ": 4263,
      "Ġaw": 4264,
      "ĠOur": 4265,
      "cup": 4266,
      "ĠDr": 4267,
      "Ġnode": 4268,
      "Ġisn": 4269,
      "ĠÐ²Ð¾": 4270,
      "ÑĨÐ°": 4271,
      "ĠWindows": 4272,
      "åĻ": 4273,
      "vare": 4274,
      "nces": 4275,
      "éļı": 4276,
      "åį´": 4277,
      "Ġson": 4278,
      "æľĽ": 4279,
      "æĬ¤": 4280,
      "Ġsun": 4281,
      "ç¦»": 4282,
      "Ġleave": 4283,
      "ML": 4284,
      "irit": 4285,
      "Ġprovided": 4286,
      "é¾": 4287,
      "sing": 4288,
      "bm": 4289,
      "Ġdate": 4290,
      "more": 4291,
      "Ġclick": 4292,
      "ĠÐ¼Ðµ": 4293,
[...]
